{
  "version": "1.0",
  "truncation": null,
  "padding": null,
  "added_tokens": [
    {
      "id": 0,
      "content": "<|endoftext|>",
      "single_word": false,
      "lstrip": false,
      "rstrip": false,
      "normalized": false,
      "special": true
    }
  ],
  "normalizer": null,
  "pre_tokenizer": {
    "type": "ByteLevel",
    "add_prefix_space": false,
    "trim_offsets": true,
    "use_regex": true
  },
  "post_processor": null,
  "decoder": {
    "type": "ByteLevel",
    "add_prefix_space": true,
    "trim_offsets": true,
    "use_regex": true
  },
  "model": {
    "type": "BPE",
    "dropout": null,
    "unk_token": null,
    "continuing_subword_prefix": null,
    "end_of_word_suffix": null,
    "fuse_unk": false,
    "byte_fallback": false,
    "ignore_merges": false,
    "vocab": {
      "<|endoftext|>": 0,
      "!": 1,
      "\"": 2,
      "#": 3,
      "$": 4,
      "%": 5,
      "&": 6,
      "'": 7,
      "(": 8,
      ")": 9,
      "*": 10,
      "+": 11,
      ",": 12,
      "-": 13,
      ".": 14,
      "/": 15,
      "0": 16,
      "1": 17,
      "2": 18,
      "3": 19,
      "4": 20,
      "5": 21,
      "6": 22,
      "7": 23,
      "8": 24,
      "9": 25,
      ":": 26,
      ";": 27,
      "<": 28,
      "=": 29,
      ">": 30,
      "?": 31,
      "@": 32,
      "A": 33,
      "B": 34,
      "C": 35,
      "D": 36,
      "E": 37,
      "F": 38,
      "G": 39,
      "H": 40,
      "I": 41,
      "J": 42,
      "K": 43,
      "L": 44,
      "M": 45,
      "N": 46,
      "O": 47,
      "P": 48,
      "Q": 49,
      "R": 50,
      "S": 51,
      "T": 52,
      "U": 53,
      "V": 54,
      "W": 55,
      "X": 56,
      "Y": 57,
      "Z": 58,
      "[": 59,
      "\\": 60,
      "]": 61,
      "^": 62,
      "_": 63,
      "`": 64,
      "a": 65,
      "b": 66,
      "c": 67,
      "d": 68,
      "e": 69,
      "f": 70,
      "g": 71,
      "h": 72,
      "i": 73,
      "j": 74,
      "k": 75,
      "l": 76,
      "m": 77,
      "n": 78,
      "o": 79,
      "p": 80,
      "q": 81,
      "r": 82,
      "s": 83,
      "t": 84,
      "u": 85,
      "v": 86,
      "w": 87,
      "x": 88,
      "y": 89,
      "z": 90,
      "{": 91,
      "|": 92,
      "}": 93,
      "~": 94,
      "¡": 95,
      "¢": 96,
      "£": 97,
      "¤": 98,
      "¥": 99,
      "¦": 100,
      "§": 101,
      "¨": 102,
      "©": 103,
      "ª": 104,
      "«": 105,
      "¬": 106,
      "®": 107,
      "¯": 108,
      "°": 109,
      "±": 110,
      "²": 111,
      "³": 112,
      "´": 113,
      "µ": 114,
      "¶": 115,
      "·": 116,
      "¸": 117,
      "¹": 118,
      "º": 119,
      "»": 120,
      "¼": 121,
      "½": 122,
      "¾": 123,
      "¿": 124,
      "À": 125,
      "Á": 126,
      "Â": 127,
      "Ã": 128,
      "Ä": 129,
      "Å": 130,
      "Æ": 131,
      "Ç": 132,
      "È": 133,
      "É": 134,
      "Ê": 135,
      "Ë": 136,
      "Ì": 137,
      "Í": 138,
      "Î": 139,
      "Ï": 140,
      "Ð": 141,
      "Ñ": 142,
      "Ò": 143,
      "Ó": 144,
      "Ô": 145,
      "Õ": 146,
      "Ö": 147,
      "×": 148,
      "Ø": 149,
      "Ù": 150,
      "Ú": 151,
      "Û": 152,
      "Ü": 153,
      "Ý": 154,
      "Þ": 155,
      "ß": 156,
      "à": 157,
      "á": 158,
      "â": 159,
      "ã": 160,
      "ä": 161,
      "å": 162,
      "æ": 163,
      "ç": 164,
      "è": 165,
      "é": 166,
      "ê": 167,
      "ë": 168,
      "ì": 169,
      "í": 170,
      "î": 171,
      "ï": 172,
      "ð": 173,
      "ñ": 174,
      "ò": 175,
      "ó": 176,
      "ô": 177,
      "õ": 178,
      "ö": 179,
      "÷": 180,
      "ø": 181,
      "ù": 182,
      "ú": 183,
      "û": 184,
      "ü": 185,
      "ý": 186,
      "þ": 187,
      "ÿ": 188,
      "Ā": 189,
      "ā": 190,
      "Ă": 191,
      "ă": 192,
      "Ą": 193,
      "ą": 194,
      "Ć": 195,
      "ć": 196,
      "Ĉ": 197,
      "ĉ": 198,
      "Ċ": 199,
      "ċ": 200,
      "Č": 201,
      "č": 202,
      "Ď": 203,
      "ď": 204,
      "Đ": 205,
      "đ": 206,
      "Ē": 207,
      "ē": 208,
      "Ĕ": 209,
      "ĕ": 210,
      "Ė": 211,
      "ė": 212,
      "Ę": 213,
      "ę": 214,
      "Ě": 215,
      "ě": 216,
      "Ĝ": 217,
      "ĝ": 218,
      "Ğ": 219,
      "ğ": 220,
      "Ġ": 221,
      "ġ": 222,
      "Ģ": 223,
      "ģ": 224,
      "Ĥ": 225,
      "ĥ": 226,
      "Ħ": 227,
      "ħ": 228,
      "Ĩ": 229,
      "ĩ": 230,
      "Ī": 231,
      "ī": 232,
      "Ĭ": 233,
      "ĭ": 234,
      "Į": 235,
      "į": 236,
      "İ": 237,
      "ı": 238,
      "Ĳ": 239,
      "ĳ": 240,
      "Ĵ": 241,
      "ĵ": 242,
      "Ķ": 243,
      "ķ": 244,
      "ĸ": 245,
      "Ĺ": 246,
      "ĺ": 247,
      "Ļ": 248,
      "ļ": 249,
      "Ľ": 250,
      "ľ": 251,
      "Ŀ": 252,
      "ŀ": 253,
      "Ł": 254,
      "ł": 255,
      "Ń": 256,
      "on": 257,
      "te": 258,
      "or": 259,
      "ro": 260,
      "le": 261,
      "re": 262,
      "Ġ<": 263,
      "in": 264,
      "Ġc": 265,
      "Ġ{": 266,
      "st": 267,
      "er": 268,
      "ti": 269,
      "me": 270,
      "se": 271,
      "Ġ}": 272,
      "la": 273,
      "Ġ=": 274,
      "en": 275,
      "ar": 276,
      "Ġf": 277,
      "an": 278,
      "ss": 279,
      "de": 280,
      "al": 281,
      "=\"": 282,
      "ame": 283,
      "mp": 284,
      "di": 285,
      "Ġ\"": 286,
      "ac": 287,
      "tion": 288,
      "ort": 289,
      "={": 290,
      "at": 291,
      "Name": 292,
      "Ġ(": 293,
      "lass": 294,
      "ur": 295,
      "ut": 296,
      "Ġt": 297,
      "ge": 298,
      "lassName": 299,
      "Ġ</": 300,
      "xt": 301,
      "ing": 302,
      "Ġ'": 303,
      "ĠclassName": 304,
      "un": 305,
      "onst": 306,
      "rom": 307,
      ");": 308,
      "Ġ1": 309,
      "Ġi": 310,
      "ri": 311,
      "Ġre": 312,
      "mport": 313,
      "Ġfrom": 314,
      "import": 315,
      "ol": 316,
      "rop": 317,
      "..": 318,
      "nt": 319,
      "Re": 320,
      "Ġconst": 321,
      "Ġp": 322,
      "ate": 323,
      "div": 324,
      "text": 325,
      "ent": 326,
      "ter": 327,
      "der": 328,
      "he": 329,
      "it": 330,
      "ul": 331,
      "lo": 332,
      "pe": 333,
      "con": 334,
      "Ġs": 335,
      "use": 336,
      "Ġ=>": 337,
      "el": 338,
      "rops": 339,
      "Ġ/": 340,
      "ue": 341,
      "ab": 342,
      "li": 343,
      "Ġ/>": 344,
      "\",": 345,
      "act": 346,
      "il": 347,
      "ap": 348,
      "ype": 349,
      "ad": 350,
      "\">": 351,
      "Ġb": 352,
      "Ġ[": 353,
      "ve": 354,
      "tem": 355,
      "id": 356,
      "00": 357,
      "Ġst": 358,
      "ct": 359,
      "Ġd": 360,
      "Ġ0": 361,
      "urn": 362,
      "age": 363,
      "turn": 364,
      "-.": 365,
      "Ġn": 366,
      "Ġreturn": 367,
      "ig": 368,
      "sp": 369,
      "ata": 370,
      "op": 371,
      "Ġuse": 372,
      "as": 373,
      "St": 374,
      "ow": 375,
      "ce": 376,
      "Con": 377,
      "set": 378,
      "Ġ2": 379,
      "si": 380,
      "ction": 381,
      ")}": 382,
      "\";": 383,
      "Ġm": 384,
      "ex": 385,
      "ck": 386,
      "omp": 387,
      "Ġw": 388,
      "ch": 389,
      "Ġh": 390,
      "Ġv": 391,
      "Ġ},": 392,
      "ton": 393,
      "Se": 394,
      "ver": 395,
      "ra": 396,
      "alue": 397,
      "ts": 398,
      "ring": 399,
      "utton": 400,
      "In": 401,
      "Props": 402,
      "th": 403,
      "lex": 404,
      "us": 405,
      "ation": 406,
      "ine": 407,
      "ĠRe": 408,
      "able": 409,
      "',": 410,
      "ht": 411,
      "tive": 412,
      "()": 413,
      "onent": 414,
      "omponent": 415,
      "ke": 416,
      "port": 417,
      "roun": 418,
      "orm": 419,
      "om": 420,
      "um": 421,
      "Ġon": 422,
      "is": 423,
      "ull": 424,
      "ment": 425,
      "up": 426,
      "mi": 427,
      "Ġtext": 428,
      "ode": 429,
      "Icon": 430,
      "vi": 431,
      "...": 432,
      "def": 433,
      "ew": 434,
      "ze": 435,
      "ult": 436,
      "og": 437,
      "Ġset": 438,
      "export": 439,
      "';": 440,
      "and": 441,
      "ard": 442,
      "ĠĠ": 443,
      "ĠC": 444,
      "ĠReact": 445,
      "</": 446,
      "Ġ?": 447,
      "ext": 448,
      "Ġ>": 449,
      "ted": 450,
      "Ġ|": 451,
      "Ġin": 452,
      "od": 453,
      "ari": 454,
      "sc": 455,
      "get": 456,
      "Ġ*": 457,
      "De": 458,
      "Ġif": 459,
      "oo": 460,
      "Ġ3": 461,
      "ore": 462,
      "Item": 463,
      "Ġg": 464,
      "Ġa": 465,
      "ault": 466,
      "ack": 467,
      "olor": 468,
      "Button": 469,
      "Ġtype": 470,
      "tent": 471,
      "ran": 472,
      "order": 473,
      "Ġ&": 474,
      "over": 475,
      "-[": 476,
      "({": 477,
      "enter": 478,
      "Ġ)": 479,
      "==": 480,
      "@/": 481,
      "ĠT": 482,
      "props": 483,
      "unction": 484,
      "react": 485,
      "ont": 486,
      "12": 487,
      "Id": 488,
      "Ch": 489,
      "oc": 490,
      "ror": 491,
      "Ġ:": 492,
      "center": 493,
      "out": 494,
      "Ġas": 495,
      "Ġstring": 496,
      "Ġdata": 497,
      "Ġ);": 498,
      "ui": 499,
      "rent": 500,
      "ĠP": 501,
      "default": 502,
      "ub": 503,
      "et": 504,
      "ink": 505,
      "yle": 506,
      "ĠS": 507,
      "ize": 508,
      "Ġis": 509,
      "Ġ&&": 510,
      "fi": 511,
      "mo": 512,
      "ption": 513,
      "of": 514,
      "own": 515,
      "ot": 516,
      "round": 517,
      "ase": 518,
      "tsx": 519,
      "span": 520,
      "Ġ4": 521,
      "lay": 522,
      "ect": 523,
      "tit": 524,
      "ist": 525,
      "arian": 526,
      "lab": 527,
      "Ġitem": 528,
      "Ref": 529,
      "ath": 530,
      "ĠA": 531,
      "ren": 532,
      "Men": 533,
      "Di": 534,
      "25": 535,
      "put": 536,
      "Ġ===": 537,
      "?:": 538,
      "flex": 539,
      "10": 540,
      "ded": 541,
      "/*": 542,
      "type": 543,
      "Ġ*/": 544,
      "eld": 545,
      "State": 546,
      "16": 547,
      "lect": 548,
      "px": 549,
      "sh": 550,
      "im": 551,
      "line": 552,
      "ace": 553,
      "ild": 554,
      "ight": 555,
      "scri": 556,
      "title": 557,
      "Menu": 558,
      "Ġ5": 559,
      "omponents": 560,
      "Fi": 561,
      "oun": 562,
      "idth": 563,
      "key": 564,
      "urrent": 565,
      "../": 566,
      "?.": 567,
      "roup": 568,
      "${": 569,
      "75": 570,
      "ground": 571,
      "ed": 572,
      "14": 573,
      "Content": 574,
      "Ġto": 575,
      "ma": 576,
      "ta": 577,
      "label": 578,
      "(\"": 579,
      "art": 580,
      "const": 581,
      "To": 582,
      "Ġflex": 583,
      "ust": 584,
      "Pri": 585,
      "15": 586,
      "all": 587,
      "ange": 588,
      "Ġdefault": 589,
      "18": 590,
      "ref": 591,
      "ber": 592,
      "13": 593,
      "Pro": 594,
      "Ġ})": 595,
      "Ġ)}": 596,
      "lement": 597,
      "components": 598,
      "Ġe": 599,
      "Cli": 600,
      "ark": 601,
      "Ġitems": 602,
      "ity": 603,
      "ide": 604,
      "ading": 605,
      "]:": 606,
      "scription": 607,
      "Form": 608,
      "Ġthe": 609,
      "Me": 610,
      "rig": 611,
      "Type": 612,
      "Ġ6": 613,
      "ay": 614,
      "Ġvalue": 615,
      "}>": 616,
      "full": 617,
      "vent": 618,
      "bo": 619,
      "am": 620,
      "sm": 621,
      "red": 622,
      "Ġ...": 623,
      "ith": 624,
      "Ġ{...": 625,
      "Ġde": 626,
      "alog": 627,
      "ader": 628,
      "();": 629,
      "Ġ\"@/": 630,
      "dex": 631,
      "mitive": 632,
      "24": 633,
      "He": 634,
      "ariant": 635,
      "Select": 636,
      "Ġborder": 637,
      "one": 638,
      "Ġ||": 639,
      "Data": 640,
      "rounded": 641,
      "Value": 642,
      "our": 643,
      "ill": 644,
      "alse": 645,
      "Primitive": 646,
      "Ġ()": 647,
      "ry": 648,
      "down": 649,
      "ser": 650,
      "Ġ!": 651,
      "name": 652,
      "ary": 653,
      "rap": 654,
      "Ġgap": 655,
      "col": 656,
      "andle": 657,
      "Ġfunction": 658,
      "Ġ`": 659,
      "gra": 660,
      "bg": 661,
      "ssage": 662,
      "es": 663,
      "row": 664,
      "17": 665,
      "Link": 666,
      "rol": 667,
      "--": 668,
      "form": 669,
      "Ġ}}": 670,
      "ff": 671,
      "Ġnull": 672,
      "pen": 673,
      "Ġse": 674,
      "20": 675,
      "Ġsize": 676,
      "fore": 677,
      "Ġdi": 678,
      "((": 679,
      "rue": 680,
      "Ġ7": 681,
      "error": 682,
      "('": 683,
      "50": 684,
      "Dialog": 685,
      "Card": 686,
      "ildren": 687,
      "if": 688,
      "Ġfont": 689,
      "ĠD": 690,
      "ger": 691,
      "ject": 692,
      "19": 693,
      "Element": 694,
      "current": 695,
      "Ġhe": 696,
      "Ġ8": 697,
      "33": 698,
      "umber": 699,
      "av": 700,
      "sition": 701,
      "ute": 702,
      "='": 703,
      "ost": 704,
      "fig": 705,
      "Ġy": 706,
      "to": 707,
      "Click": 708,
      "Context": 709,
      "lu": 710,
      "Text": 711,
      "26": 712,
      "js": 713,
      "pro": 714,
      "Change": 715,
      "data": 716,
      "Ġcon": 717,
      "button": 718,
      "low": 719,
      "Ġid": 720,
      "28": 721,
      "11": 722,
      "Input": 723,
      "Ġrounded": 724,
      "Ġan": 725,
      "Component": 726,
      "04": 727,
      "rans": 728,
      "uer": 729,
      "ng": 730,
      "06": 731,
      "Ġsh": 732,
      "99": 733,
      "icon": 734,
      "ĠM": 735,
      "ount": 736,
      "ropdown": 737,
      "Ġch": 738,
      "={{": 739,
      "vider": 740,
      "ign": 741,
      "05": 742,
      "23": 743,
      "};": 744,
      "Field": 745,
      "ify": 746,
      "bar": 747,
      "Ġop": 748,
      "foreground": 749,
      "vg": 750,
      "08": 751,
      "abled": 752,
      "per": 753,
      "],": 754,
      "dit": 755,
      "Ġtitle": 756,
      "Ġ};": 757,
      "ilter": 758,
      "Ġname": 759,
      "iew": 760,
      "cted": 761,
      "Ġget": 762,
      "03": 763,
      "back": 764,
      "Ġbg": 765,
      "ile": 766,
      "ĠĠĠĠ": 767,
      "Ġ-": 768,
      "heck": 769,
      "value": 770,
      "ord": 771,
      "uery": 772,
      "ion": 773,
      "rror": 774,
      "Ġun": 775,
      "ale": 776,
      "user": 777,
      "07": 778,
      "ag": 779,
      "Error": 780,
      "Ġme": 781,
      "item": 782,
      "ey": 783,
      "),": 784,
      "Color": 785,
      "rigger": 786,
      "ĠL": 787,
      "Ġkey": 788,
      "yn": 789,
      "27": 790,
      "Ġj": 791,
      "Ġ});": 792,
      "reate": 793,
      "ite": 794,
      "Sc": 795,
      "late": 796,
      "next": 797,
      "tip": 798,
      "inter": 799,
      "Ġ9": 800,
      "66": 801,
      "Ġlabel": 802,
      "Ġstyle": 803,
      "ft": 804,
      "Key": 805,
      "cn": 806,
      "mic": 807,
      "rid": 808,
      "./": 809,
      "lg": 810,
      "Group": 811,
      "29": 812,
      "omm": 813,
      "lot": 814,
      "abel": 815,
      "nd": 816,
      "none": 817,
      "lock": 818,
      "lient": 819,
      "function": 820,
      "Ġle": 821,
      "date": 822,
      "ustify": 823,
      "aut": 824,
      "tic": 825,
      "Ġdark": 826,
      "44": 827,
      "lected": 828,
      "Ġwidth": 829,
      "gray": 830,
      "ĠuseState": 831,
      "po": 832,
      "Open": 833,
      "svg": 834,
      "arch": 835,
      "splay": 836,
      "Ġ{}": 837,
      "ls": 838,
      "Ġ'@/": 839,
      "cess": 840,
      "List": 841,
      "ory": 842,
      "den": 843,
      "size": 844,
      "las": 845,
      "ind": 846,
      "ure": 847,
      "rc": 848,
      "Ġac": 849,
      "lean": 850,
      "du": 851,
      "ined": 852,
      "Ġ({": 853,
      "Page": 854,
      "ble": 855,
      "roke": 856,
      "Ġth": 857,
      "ĠonClick": 858,
      "xl": 859,
      "Ġ\"@": 860,
      "Ġjustify": 861,
      "border": 862,
      "Node": 863,
      "Label": 864,
      "ps": 865,
      "oolean": 866,
      "acity": 867,
      "ropdownMenu": 868,
      "45": 869,
      "path": 870,
      "09": 871,
      "Lo": 872,
      "ator": 873,
      "ly": 874,
      "Ġlo": 875,
      "abs": 876,
      "ook": 877,
      "ting": 878,
      "mage": 879,
      "Ġheight": 880,
      "Ġref": 881,
      "end": 882,
      "atus": 883,
      "48": 884,
      "ĠB": 885,
      "Ex": 886,
      "oltip": 887,
      "Ġvariant": 888,
      "wa": 889,
      "defined": 890,
      "pre": 891,
      "36": 892,
      "Provider": 893,
      "Ġstroke": 894,
      "Ġex": 895,
      "Ac": 896,
      "Trigger": 897,
      "ĠF": 898,
      "ime": 899,
      "Ġpro": 900,
      "map": 901,
      "38": 902,
      "ork": 903,
      "ob": 904,
      "state": 905,
      "ransition": 906,
      "35": 907,
      "lace": 908,
      "itle": 909,
      "Ġfill": 910,
      "(()": 911,
      "ou": 912,
      "false": 913,
      "rt": 914,
      "heme": 915,
      "ox": 916,
      "tions": 917,
      "pri": 918,
      "Ġnumber": 919,
      "ocus": 920,
      "aram": 921,
      "older": 922,
      "color": 923,
      "app": 924,
      "ync": 925,
      "Ġ12": 926,
      "ĠIcon": 927,
      "sabled": 928,
      "Ġcolor": 929,
      "78": 930,
      "odal": 931,
      "iner": 932,
      "Ġ10": 933,
      "Title": 934,
      "lose": 935,
      "}</": 936,
      "Up": 937,
      "view": 938,
      "uted": 939,
      "wait": 940,
      "Ġ.": 941,
      "Ġhandle": 942,
      "idden": 943,
      "lasmic": 944,
      "sible": 945,
      "95": 946,
      "Ġnew": 947,
      "96": 948,
      "Header": 949,
      "22": 950,
      "we": 951,
      "76": 952,
      "typeof": 953,
      "46": 954,
      "hite": 955,
      "Sh": 956,
      "Ġma": 957,
      "ngth": 958,
      "mary": 959,
      "ic": 960,
      "Sub": 961,
      "Message": 962,
      "uc": 963,
      "ast": 964,
      "htt": 965,
      "add": 966,
      "98": 967,
      "HT": 968,
      "ource": 969,
      "umn": 970,
      "Ġ(!": 971,
      "Table": 972,
      "Ar": 973,
      "md": 974,
      "Ġawait": 975,
      "muted": 976,
      "Time": 977,
      "box": 978,
      "raph": 979,
      "}:": 980,
      "ress": 981,
      "style": 982,
      "Set": 983,
      "View": 984,
      ">(": 985,
      "space": 986,
      "User": 987,
      "100": 988,
      "reg": 989,
      "length": 990,
      "arams": 991,
      "Ġtrue": 992,
      "Ġboolean": 993,
      "__": 994,
      "ML": 995,
      "arget": 996,
      "mit": 997,
      "old": 998,
      "Ġ'@": 999,
      "ĠI": 1000,
      "HTML": 1001,
      "Ġal": 1002,
      "radi": 1003,
      "Ġhref": 1004,
      "02": 1005,
      "Ġro": 1006,
      "))": 1007,
      "roll": 1008,
      "mail": 1009,
      "face": 1010,
      "With": 1011,
      "55": 1012,
      "tial": 1013,
      "37": 1014,
      "ml": 1015,
      "tri": 1016,
      "Box": 1017,
      "Event": 1018,
      "ĠN": 1019,
      "../../": 1020,
      "load": 1021,
      "ner": 1022,
      "500": 1023,
      "atch": 1024,
      "fe": 1025,
      "(--": 1026,
      "34": 1027,
      "uti": 1028,
      "ssion": 1029,
      "Config": 1030,
      "Ġhover": 1031,
      "amp": 1032,
      "Ġchildren": 1033,
      "Ġpy": 1034,
      "Ġ??": 1035,
      "Ġundefined": 1036,
      "Ġprops": 1037,
      "istry": 1038,
      "lib": 1039,
      "Ġand": 1040,
      "ffect": 1041,
      "imate": 1042,
      "white": 1043,
      "Ġ24": 1044,
      "Ġpx": 1045,
      "Ġ14": 1046,
      "];": 1047,
      "32": 1048,
      "rea": 1049,
      "56": 1050,
      "ron": 1051,
      "allback": 1052,
      "Ġfalse": 1053,
      "min": 1054,
      "tainer": 1055,
      "lete": 1056,
      "hidden": 1057,
      "Edit": 1058,
      "nder": 1059,
      ").": 1060,
      "medi": 1061,
      "Ġof": 1062,
      "side": 1063,
      "Ġtransition": 1064,
      "58": 1065,
      "gle": 1066,
      "]);": 1067,
      "flow": 1068,
      "ori": 1069,
      "gs": 1070,
      "77": 1071,
      "Loading": 1072,
      "pp": 1073,
      "oid": 1074,
      "Ġfor": 1075,
      "Effect": 1076,
      "ne": 1077,
      "Mode": 1078,
      "true": 1079,
      "\":": 1080,
      "ĠO": 1081,
      "={()": 1082,
      "Col": 1083,
      "39": 1084,
      "Ġclient": 1085,
      "}`": 1086,
      "les": 1087,
      "lug": 1088,
      "Size": 1089,
      "uration": 1090,
      "Ġ16": 1091,
      "Ġdescription": 1092,
      "utils": 1093,
      "``": 1094,
      "ustom": 1095,
      "Ġrender": 1096,
      "xs": 1097,
      "uest": 1098,
      "board": 1099,
      "duct": 1100,
      "Ġ${": 1101,
      "rl": 1102,
      "time": 1103,
      "01": 1104,
      "Ġ}:": 1105,
      "Line": 1106,
      "ComponentProps": 1107,
      "base": 1108,
      "88": 1109,
      "open": 1110,
      "cation": 1111,
      "ty": 1112,
      "auto": 1113,
      "ateg": 1114,
      "At": 1115,
      "atar": 1116,
      "count": 1117,
      "url": 1118,
      "Index": 1119,
      "Ad": 1120,
      "link": 1121,
      "Ġicon": 1122,
      "lert": 1123,
      "Query": 1124,
      "Modal": 1125,
      "ĠSt": 1126,
      "tings": 1127,
      "val": 1128,
      "Is": 1129,
      "fo": 1130,
      "Row": 1131,
      "ariants": 1132,
      "\"}": 1133,
      "Url": 1134,
      "registry": 1135,
      "ash": 1136,
      "Ġ13": 1137,
      "79": 1138,
      "par": 1139,
      "Ġup": 1140,
      "\")": 1141,
      "holder": 1142,
      "oggle": 1143,
      "Ġdisabled": 1144,
      "Width": 1145,
      "laceholder": 1146,
      "lig": 1147,
      "Action": 1148,
      "Ġ+": 1149,
      "Option": 1150,
      "Ġsm": 1151,
      "itial": 1152,
      "Description": 1153,
      "idebar": 1154,
      "ave": 1155,
      "Ġmax": 1156,
      "string": 1157,
      "Ġ11": 1158,
      "medium": 1159,
      "aria": 1160,
      "Ġvoid": 1161,
      "https": 1162,
      "bold": 1163,
      "ass": 1164,
      "TE": 1165,
      "Ġwith": 1166,
      "Pre": 1167,
      "display": 1168,
      "Ġsc": 1169,
      "Ġ!==": 1170,
      "Ġx": 1171,
      "sult": 1172,
      "49": 1173,
      "ĠDe": 1174,
      "Image": 1175,
      "slot": 1176,
      "input": 1177,
      "adow": 1178,
      "var": 1179,
      "En": 1180,
      "')": 1181,
      "log": 1182,
      "pt": 1183,
      "Ġ15": 1184,
      "query": 1185,
      "Ġany": 1186,
      "right": 1187,
      "21": 1188,
      "DropdownMenu": 1189,
      "Le": 1190,
      "Ġ'./": 1191,
      "avig": 1192,
      "Ġfocus": 1193,
      "cent": 1194,
      "file": 1195,
      "icons": 1196,
      "Ġbe": 1197,
      "ody": 1198,
      "ci": 1199,
      "ken": 1200,
      "page": 1201,
      "ain": 1202,
      "reen": 1203,
      ">{": 1204,
      "68": 1205,
      "47": 1206,
      "Tooltip": 1207,
      "ell": 1208,
      "uth": 1209,
      "word": 1210,
      "primary": 1211,
      "children": 1212,
      "Style": 1213,
      "Ġhas": 1214,
      "Filter": 1215,
      "event": 1216,
      "React": 1217,
      "Ġfi": 1218,
      "An": 1219,
      "lative": 1220,
      "ĠuseEffect": 1221,
      "raw": 1222,
      "outline": 1223,
      "Ġmd": 1224,
      "ayout": 1225,
      "Ġerror": 1226,
      "Ġindex": 1227,
      "sor": 1228,
      "ome": 1229,
      "ĠG": 1230,
      "={`": 1231,
      "ĠR": 1232,
      "ON": 1233,
      "Ġuser": 1234,
      "Search": 1235,
      "ature": 1236,
      "spon": 1237,
      "Ġover": 1238,
      "Ġpage": 1239,
      "trol": 1240,
      "opover": 1241,
      "})": 1242,
      "Ġ18": 1243,
      "des": 1244,
      "ommand": 1245,
      "Ġform": 1246,
      "ant": 1247,
      "dio": 1248,
      "Ġmod": 1249,
      "Check": 1250,
      "top": 1251,
      "group": 1252,
      "lan": 1253,
      "Ġcont": 1254,
      "qu": 1255,
      "Variant": 1256,
      "Ġaria": 1257,
      "cord": 1258,
      "quest": 1259,
      "rag": 1260,
      "vatar": 1261,
      "field": 1262,
      "tom": 1263,
      "displayName": 1264,
      "index": 1265,
      "])": 1266,
      "ument": 1267,
      "Path": 1268,
      "men": 1269,
      "Container": 1270,
      "cond": 1271,
      "arent": 1272,
      "On": 1273,
      "ottom": 1274,
      "oot": 1275,
      "'>": 1276,
      "43": 1277,
      "\");": 1278,
      "Ġor": 1279,
      "etch": 1280,
      "ick": 1281,
      "interface": 1282,
      "ooter": 1283,
      "tail": 1284,
      "sha": 1285,
      "ĠonChange": 1286,
      "Ġfile": 1287,
      "File": 1288,
      "200": 1289,
      "adge": 1290,
      "59": 1291,
      "Ġcreate": 1292,
      "cor": 1293,
      "Info": 1294,
      "read": 1295,
      "ule": 1296,
      "Close": 1297,
      "Ġcan": 1298,
      "oin": 1299,
      "Ġpre": 1300,
      "Ġ\"./": 1301,
      "rest": 1302,
      "Ġasync": 1303,
      "hook": 1304,
      "Ġr": 1305,
      "Date": 1306,
      "={(": 1307,
      "ograph": 1308,
      "Ġ20": 1309,
      "table": 1310,
      "trans": 1311,
      "ography": 1312,
      "yp": 1313,
      "trib": 1314,
      "Ġ19": 1315,
      "start": 1316,
      "Code": 1317,
      "ursor": 1318,
      "Ġopacity": 1319,
      "Ġcontent": 1320,
      "Use": 1321,
      "Ġ17": 1322,
      "ray": 1323,
      "64": 1324,
      "ocument": 1325,
      "67": 1326,
      "AT": 1327,
      "styles": 1328,
      "Ġmin": 1329,
      "Section": 1330,
      "Trans": 1331,
      "Ġz": 1332,
      "ĠuseC": 1333,
      "ĠButton": 1334,
      "qui": 1335,
      "iz": 1336,
      "Ġel": 1337,
      "wit": 1338,
      "hover": 1339,
      "inc": 1340,
      "57": 1341,
      "Ra": 1342,
      "source": 1343,
      "Down": 1344,
      "tep": 1345,
      "Ġthis": 1346,
      "String": 1347,
      "block": 1348,
      "ance": 1349,
      "Ġview": 1350,
      "ategory": 1351,
      "400": 1352,
      "Mo": 1353,
      "heet": 1354,
      "Ġshow": 1355,
      "olute": 1356,
      "new": 1357,
      ">;": 1358,
      "content": 1359,
      "Count": 1360,
      "rack": 1361,
      "Ġsp": 1362,
      "Sp": 1363,
      "Ġyour": 1364,
      "active": 1365,
      "42": 1366,
      "Ġcol": 1367,
      "code": 1368,
      "Ġ\"../": 1369,
      "Layout": 1370,
      "Ġpath": 1371,
      "sion": 1372,
      "for": 1373,
      "handle": 1374,
      "utes": 1375,
      "absolute": 1376,
      "Ġgroup": 1377,
      "Prop": 1378,
      "grid": 1379,
      "ound": 1380,
      "work": 1381,
      "bl": 1382,
      "Ġcurrent": 1383,
      "str": 1384,
      "mb": 1385,
      "ĠĊ": 1386,
      "uccess": 1387,
      "font": 1388,
      "ree": 1389,
      "os": 1390,
      "Ġduration": 1391,
      "ener": 1392,
      "sub": 1393,
      "avigation": 1394,
      "Ġ),": 1395,
      "left": 1396,
      "uter": 1397,
      "image": 1398,
      "ypography": 1399,
      "filter": 1400,
      "config": 1401,
      "osition": 1402,
      "App": 1403,
      "={\"": 1404,
      "Def": 1405,
      "api": 1406,
      "Theme": 1407,
      "ĠW": 1408,
      "Ġ<>": 1409,
      "vice": 1410,
      "rapper": 1411,
      "ĠsetIs": 1412,
      "sponse": 1413,
      "ĠH": 1414,
      "Settings": 1415,
      "ĠDropdownMenu": 1416,
      "lection": 1417,
      "ĠĠĠĠĠĠĠĠ": 1418,
      "card": 1419,
      "list": 1420,
      "600": 1421,
      "ĠTo": 1422,
      "indow": 1423,
      "ai": 1424,
      "assword": 1425,
      "DE": 1426,
      "max": 1427,
      "Add": 1428,
      "mt": 1429,
      "are": 1430,
      "Log": 1431,
      "plasmic": 1432,
      "rame": 1433,
      "tern": 1434,
      "opacity": 1435,
      "65": 1436,
      ">)": 1437,
      "Ġyou": 1438,
      "lap": 1439,
      "parator": 1440,
      "':": 1441,
      "97": 1442,
      "Variants": 1443,
      "Ġla": 1444,
      "RI": 1445,
      "Ġcomponent": 1446,
      "null": 1447,
      "300": 1448,
      "Out": 1449,
      "Un": 1450,
      "otal": 1451,
      "no": 1452,
      "rect": 1453,
      "Params": 1454,
      "Ġ))}": 1455,
      "Ġen": 1456,
      "Ro": 1457,
      "85": 1458,
      "31": 1459,
      "motion": 1460,
      "Submit": 1461,
      "adata": 1462,
      "umb": 1463,
      "\">{": 1464,
      "bject": 1465,
      "move": 1466,
      "Ġelse": 1467,
      "width": 1468,
      "[]": 1469,
      "light": 1470,
      "ward": 1471,
      "ample": 1472,
      "condary": 1473,
      "ĠSelect": 1474,
      "Ġ</>": 1475,
      "section": 1476,
      "com": 1477,
      "opi": 1478,
      "Ġinitial": 1479,
      "Root": 1480,
      "30": 1481,
      "Active": 1482,
      "Ġtypeof": 1483,
      "ĠCard": 1484,
      "pointer": 1485,
      "Te": 1486,
      "Ġ'../../": 1487,
      "Items": 1488,
      "css": 1489,
      "Control": 1490,
      "Client": 1491,
      "anel": 1492,
      "Comp": 1493,
      "Ġ}),": 1494,
      "Or": 1495,
      "EN": 1496,
      "auth": 1497,
      "rawer": 1498,
      "By": 1499,
      "Ġoverflow": 1500,
      "client": 1501,
      "shared": 1502,
      "Ġ[&": 1503,
      "Memo": 1504,
      "ll": 1505,
      "sol": 1506,
      "Ġ{...(": 1507,
      "gress": 1508,
      "69": 1509,
      "web": 1510,
      "Options": 1511,
      "Ġfield": 1512,
      "pi": 1513,
      "Ġupdate": 1514,
      "comm": 1515,
      "ers": 1516,
      "Sidebar": 1517,
      "led": 1518,
      "visible": 1519,
      "Over": 1520,
      "No": 1521,
      "relative": 1522,
      "For": 1523,
      "ĠDialog": 1524,
      "ackground": 1525,
      "Status": 1526,
      "cy": 1527,
      "from": 1528,
      "lar": 1529,
      "message": 1530,
      "Ren": 1531,
      "Grid": 1532,
      "leton": 1533,
      "selected": 1534,
      ")]": 1535,
      "show": 1536,
      "mod": 1537,
      "Ġactive": 1538,
      "Ġopen": 1539,
      "cal": 1540,
      "fir": 1541,
      "opy": 1542,
      "keleton": 1543,
      "Ġ`${": 1544,
      "vIcon": 1545,
      "Store": 1546,
      "witch": 1547,
      "Met": 1548,
      "40": 1549,
      "Ġselected": 1550,
      "tend": 1551,
      "sli": 1552,
      "ween": 1553,
      "ashboard": 1554,
      "tx": 1555,
      "Ġplaceholder": 1556,
      "Ġlg": 1557,
      "Scroll": 1558,
      "etween": 1559,
      "action": 1560,
      "\")}": 1561,
      "hooks": 1562,
      "Ġshadow": 1563,
      ">,": 1564,
      "hema": 1565,
      "menu": 1566,
      "Ġtrans": 1567,
      "let": 1568,
      "Alert": 1569,
      "ip": 1570,
      "):": 1571,
      "className": 1572,
      "41": 1573,
      "mpty": 1574,
      "ĠĠĠ": 1575,
      "Ġ'../": 1576,
      "accent": 1577,
      "sed": 1578,
      "lob": 1579,
      "cide": 1580,
      "Ġsrc": 1581,
      "mber": 1582,
      "ization": 1583,
      "Ġte": 1584,
      "Ġcn": 1585,
      "tr": 1586,
      "Loc": 1587,
      "Tab": 1588,
      "semi": 1589,
      "Typography": 1590,
      "lucide": 1591,
      "ĠstrokeLine": 1592,
      "`,": 1593,
      "fication": 1594,
      "Block": 1595,
      "Ġ})}": 1596,
      "dion": 1597,
      "cordion": 1598,
      "UR": 1599,
      "semibold": 1600,
      "Selected": 1601,
      "obile": 1602,
      "89": 1603,
      "background": 1604,
      "Ġmessage": 1605,
      "ocs": 1606,
      "87": 1607,
      "cel": 1608,
      "ĠIconProps": 1609,
      "Column": 1610,
      "igh": 1611,
      "86": 1612,
      "Ġtarget": 1613,
      "description": 1614,
      "=\"#": 1615,
      "ination": 1616,
      "rcle": 1617,
      "create": 1618,
      "Ġtop": 1619,
      "Ġar": 1620,
      "Post": 1621,
      "##": 1622,
      "ransp": 1623,
      "theme": 1624,
      "ĠPro": 1625,
      "imation": 1626,
      "700": 1627,
      "```": 1628,
      "sidebar": 1629,
      "ral": 1630,
      "ĠCh": 1631,
      "afe": 1632,
      "valid": 1633,
      "Separator": 1634,
      "Show": 1635,
      "Auth": 1636,
      "ĠJ": 1637,
      "types": 1638,
      "between": 1639,
      "Ġ/>}": 1640,
      "ubli": 1641,
      "gan": 1642,
      "Ġtheme": 1643,
      "ĠuseCallback": 1644,
      "gin": 1645,
      "rem": 1646,
      "')}": 1647,
      "Footer": 1648,
      "mplate": 1649,
      "ise": 1650,
      "object": 1651,
      "uctive": 1652,
      "colors": 1653,
      "structive": 1654,
      "radix": 1655,
      "has": 1656,
      "currentColor": 1657,
      "ĠE": 1658,
      "wardRef": 1659,
      "'}": 1660,
      "ĠuseRef": 1661,
      "54": 1662,
      "80": 1663,
      "ated": 1664,
      "Default": 1665,
      "Fe": 1666,
      "erver": 1667,
      "ZM": 1668,
      "ug": 1669,
      "hed": 1670,
      "Ġdisplay": 1671,
      "outer": 1672,
      "ransparent": 1673,
      "Th": 1674,
      "');": 1675,
      "arn": 1676,
      "Ġpar": 1677,
      "alid": 1678,
      "status": 1679,
      "cr": 1680,
      "Ġcase": 1681,
      "check": 1682,
      "Ġ],": 1683,
      "53": 1684,
      "Ġmb": 1685,
      "ĠForm": 1686,
      "IN": 1687,
      "Ġlet": 1688,
      "Ġsub": 1689,
      "int": 1690,
      "slate": 1691,
      "Ġalign": 1692,
      "site": 1693,
      "Per": 1694,
      "fset": 1695,
      "ments": 1696,
      "post": 1697,
      "lip": 1698,
      "Chart": 1699,
      "ĠIn": 1700,
      "utral": 1701,
      "rink": 1702,
      "Ġ100": 1703,
      "header": 1704,
      "target": 1705,
      "Ġ$": 1706,
      "ayload": 1707,
      "quired": 1708,
      "94": 1709,
      "sk": 1710,
      "cap": 1711,
      "Ġquery": 1712,
      "height": 1713,
      "pl": 1714,
      "Tag": 1715,
      "52": 1716,
      "().": 1717,
      "layout": 1718,
      "ms": 1719,
      "body": 1720,
      "common": 1721,
      "blue": 1722,
      "ĠuseMemo": 1723,
      "Cell": 1724,
      "lation": 1725,
      "eb": 1726,
      "cale": 1727,
      "ĠviewBox": 1728,
      "Vi": 1729,
      "so": 1730,
      "mon": 1731,
      "agination": 1732,
      "Wrapper": 1733,
      "74": 1734,
      "lack": 1735,
      "Right": 1736,
      "Update": 1737,
      "ask": 1738,
      "destructive": 1739,
      "63": 1740,
      "(),": 1741,
      "Toggle": 1742,
      "neutral": 1743,
      "dic": 1744,
      "secondary": 1745,
      "Child": 1746,
      "ush": 1747,
      "Ġstate": 1748,
      "ĠAr": 1749,
      "context": 1750,
      "Ġanimate": 1751,
      "opilot": 1752,
      "uage": 1753,
      "romise": 1754,
      "Ġno": 1755,
      "72": 1756,
      "Height": 1757,
      "Avatar": 1758,
      "Token": 1759,
      "fa": 1760,
      "Ġurl": 1761,
      "Values": 1762,
      "rence": 1763,
      "ĠPlasmic": 1764,
      "Com": 1765,
      "-[#": 1766,
      "900": 1767,
      "go": 1768,
      "ach": 1769,
      "84": 1770,
      "()}": 1771,
      "73": 1772,
      "email": 1773,
      "prev": 1774,
      "events": 1775,
      "be": 1776,
      "]}": 1777,
      "Panel": 1778,
      "icker": 1779,
      "Ġleft": 1780,
      "not": 1781,
      "transparent": 1782,
      "ten": 1783,
      "RE": 1784,
      "Ġ!=": 1785,
      "oul": 1786,
      "Ġinter": 1787,
      "Dis": 1788,
      "close": 1789,
      "option": 1790,
      "Stack": 1791,
      "join": 1792,
      "select": 1793,
      "Editor": 1794,
      "animate": 1795,
      "lobal": 1796,
      "mission": 1797,
      "Ġbackground": 1798,
      "ĠDate": 1799,
      "ould": 1800,
      "60": 1801,
      "adding": 1802,
      "sign": 1803,
      "Ġtoast": 1804,
      "Can": 1805,
      "URL": 1806,
      "edit": 1807,
      "tails": 1808,
      "Bar": 1809,
      "disabled": 1810,
      "Ġstatus": 1811,
      "Ġparams": 1812,
      "ail": 1813,
      "Ġevent": 1814,
      "Tabs": 1815,
      "Ġtrack": 1816,
      "host": 1817,
      "Ver": 1818,
      "ating": 1819,
      "Off": 1820,
      "Ġextend": 1821,
      "moun": 1822,
      "ive": 1823,
      "crumb": 1824,
      "ies": 1825,
      "main": 1826,
      "));": 1827,
      "udio": 1828,
      "800": 1829,
      "ys": 1830,
      "Ġpri": 1831,
      "tification": 1832,
      "hev": 1833,
      "readcrumb": 1834,
      "hevron": 1835,
      "translate": 1836,
      "loading": 1837,
      "PAT": 1838,
      "dicator": 1839,
      "={<": 1840,
      "=\"/": 1841,
      "ganization": 1842,
      "Badge": 1843,
      "83": 1844,
      "demo": 1845,
      "ariable": 1846,
      "ses": 1847,
      "ĠstrokeWidth": 1848,
      "ReactNode": 1849,
      "PRI": 1850,
      "forwardRef": 1851,
      "ĠProps": 1852,
      "Ġwh": 1853,
      "Ġrow": 1854,
      "93": 1855,
      "Ġproject": 1856,
      "ties": 1857,
      "Ġ21": 1858,
      "vel": 1859,
      "ER": 1860,
      "PATH": 1861,
      "ĠAlert": 1862,
      "<\"": 1863,
      "lat": 1864,
      "cols": 1865,
      "Handle": 1866,
      "Ġspace": 1867,
      "argin": 1868,
      "Left": 1869,
      "ID": 1870,
      "OR": 1871,
      "Router": 1872,
      "62": 1873,
      "find": 1874,
      "test": 1875,
      "Ġcursor": 1876,
      "search": 1877,
      "SS": 1878,
      "src": 1879,
      "ns": 1880,
      "Ġimage": 1881,
      "Ġrouter": 1882,
      "black": 1883,
      "ĠLink": 1884,
      "Ġcode": 1885,
      "zy": 1886,
      "tributes": 1887,
      "firm": 1888,
      "Command": 1889,
      "kn": 1890,
      "61": 1891,
      "dark": 1892,
      "....": 1893,
      "rection": 1894,
      "Delete": 1895,
      "Ġ22": 1896,
      "Ġcheck": 1897,
      "Ġalt": 1898,
      "Ġ{})}": 1899,
      "vo": 1900,
      "uto": 1901,
      "ortal": 1902,
      "ContextMenu": 1903,
      "Ġwindow": 1904,
      "server": 1905,
      "dev": 1906,
      "Ġ[\"": 1907,
      "Ġextends": 1908,
      "Next": 1909,
      "Ġmt": 1910,
      "Ġadd": 1911,
      "Base": 1912,
      "ormal": 1913,
      "Ġnot": 1914,
      "items": 1915,
      "}`}": 1916,
      "ĠSPRI": 1917,
      "thod": 1918,
      "env": 1919,
      "From": 1920,
      "Ġcomp": 1921,
      "lable": 1922,
      "Ġat": 1923,
      "mount": 1924,
      "ĠSPRITE": 1925,
      "Map": 1926,
      "ĠrenderUse": 1927,
      "ĠDevIcon": 1928,
      "area": 1929,
      "rial": 1930,
      "zm": 1931,
      "82": 1932,
      "Ġgrid": 1933,
      "92": 1934,
      "ĠInput": 1935,
      "bottom": 1936,
      "tity": 1937,
      "resh": 1938,
      "].": 1939,
      "fter": 1940,
      "rer": 1941,
      "can": 1942,
      "atures": 1943,
      "ClassName": 1944,
      "erence": 1945,
      "column": 1946,
      "([": 1947,
      "ories": 1948,
      "Head": 1949,
      "Ġoptions": 1950,
      "90": 1951,
      "em": 1952,
      "Play": 1953,
      "Ġtry": 1954,
      "product": 1955,
      "Popover": 1956,
      "Ġimport": 1957,
      "Ġ25": 1958,
      "Ġtable": 1959,
      "Ġtime": 1960,
      "Ġconfig": 1961,
      "async": 1962,
      "Ġ[&_": 1963,
      "Arrow": 1964,
      "Format": 1965,
      "http": 1966,
      "ative": 1967,
      "ript": 1968,
      "ĠError": 1969,
      "node": 1970,
      "zinc": 1971,
      "br": 1972,
      "Ġapp": 1973,
      "TI": 1974,
      "`}": 1975,
      "atic": 1976,
      "number": 1977,
      "Ġmo": 1978,
      "ircle": 1979,
      "Ġelement": 1980,
      "lapsible": 1981,
      "unc": 1982,
      "Ġ/>;": 1983,
      "Area": 1984,
      "71": 1985,
      "Ġthat": 1986,
      "ice": 1987,
      "Ġli": 1988,
      "lear": 1989,
      "ternal": 1990,
      "ĉĉ": 1991,
      "rong": 1992,
      "fix": 1993,
      "Ġ_": 1994,
      "Email": 1995,
      "push": 1996,
      "Number": 1997,
      "Create": 1998,
      "Ġsearch": 1999,
      "Portal": 2000,
      "Step": 2001,
      "ĠAc": 2002,
      "LE": 2003,
      "sole": 2004,
      "Ġheader": 2005,
      "class": 2006,
      "Ġ\"#": 2007,
      "oriz": 2008,
      "inline": 2009,
      "Mobile": 2010,
      "Render": 2011,
      "fer": 2012,
      "tical": 2013,
      "Ġmode": 2014,
      "Ġloading": 2015,
      "Model": 2016,
      "pan": 2017,
      "Ġstart": 2018,
      "project": 2019,
      "Ġinput": 2020,
      "kit": 2021,
      "mode": 2022,
      "----": 2023,
      "Skeleton": 2024,
      "comp": 2025,
      "51": 2026,
      "tml": 2027,
      "ST": 2028,
      "yna": 2029,
      "uild": 2030,
      "stop": 2031,
      "Ġformat": 2032,
      "ynamic": 2033,
      "ache": 2034,
      "Schema": 2035,
      "ticle": 2036,
      "Preview": 2037,
      "ven": 2038,
      "ors": 2039,
      "Div": 2040,
      "res": 2041,
      "As": 2042,
      "Array": 2043,
      "Ġ'#": 2044,
      "rite": 2045,
      "Ġfilter": 2046,
      "ĠPage": 2047,
      "Ġdate": 2048,
      "\"),": 2049,
      "Ġit": 2050,
      "radient": 2051,
      "Chat": 2052,
      ">(({": 2053,
      "ler": 2054,
      "core": 2055,
      "idget": 2056,
      "Ġ23": 2057,
      "](": 2058,
      "ĠMath": 2059,
      "Ġinset": 2060,
      "Ġresult": 2061,
      "reak": 2062,
      "ystem": 2063,
      "dia": 2064,
      "ph": 2065,
      "Ġ}}>": 2066,
      "json": 2067,
      "son": 2068,
      "ervice": 2069,
      "aro": 2070,
      "ĠasChild": 2071,
      ")\"": 2072,
      "Ġright": 2073,
      "Result": 2074,
      "igin": 2075,
      "slug": 2076,
      "Picker": 2077,
      "ters": 2078,
      "026": 2079,
      "pect": 2080,
      "Ġ00": 2081,
      "ual": 2082,
      "New": 2083,
      "Ġ30": 2084,
      "Ġleading": 2085,
      "Ġnext": 2086,
      "Ġclass": 2087,
      "container": 2088,
      "Tool": 2089,
      "Source": 2090,
      "//": 2091,
      "Radio": 2092,
      "\"],": 2093,
      "img": 2094,
      "store": 2095,
      "ec": 2096,
      "Ġposition": 2097,
      "linear": 2098,
      "ĠObject": 2099,
      "~/": 2100,
      "arouse": 2101,
      "Sign": 2102,
      "Ġcolumn": 2103,
      "arousel": 2104,
      "={[": 2105,
      "81": 2106,
      "aterial": 2107,
      "vas": 2108,
      "ĠTooltip": 2109,
      "91": 2110,
      "ats": 2111,
      "Ġ\"\",": 2112,
      "Ġxml": 2113,
      "âĢ": 2114,
      "Ctx": 2115,
      "ĠSidebar": 2116,
      "bobox": 2117,
      "dient": 2118,
      "Without": 2119,
      "ĠPromise": 2120,
      "solve": 2121,
      "Drag": 2122,
      "ĠHTML": 2123,
      "});": 2124,
      "ie": 2125,
      "ĠText": 2126,
      "/${": 2127,
      "Man": 2128,
      "Ġmeta": 2129,
      "Empty": 2130,
      "Top": 2131,
      "Ġmargin": 2132,
      "Ġpost": 2133,
      "inclu": 2134,
      "Ġxmlns": 2135,
      "ba": 2136,
      "Ġfetch": 2137,
      "utation": 2138,
      "refine": 2139,
      "onth": 2140,
      "stance": 2141,
      "ĠuseTrans": 2142,
      "vio": 2143,
      "ending": 2144,
      "DivElement": 2145,
      "FA": 2146,
      "Ġbutton": 2147,
      "All": 2148,
      "Ġdocument": 2149,
      "Ġ27": 2150,
      "Route": 2151,
      "ally": 2152,
      "UI": 2153,
      "ĠJS": 2154,
      "cre": 2155,
      "ther": 2156,
      "scroll": 2157,
      "VG": 2158,
      "only": 2159,
      "Selector": 2160,
      "Ġemail": 2161,
      "Start": 2162,
      "Custom": 2163,
      "Ġper": 2164,
      "slide": 2165,
      "Ġselect": 2166,
      "Ġedit": 2167,
      "ized": 2168,
      "Ġpadding": 2169,
      "Of": 2170,
      "Mouse": 2171,
      "Ġ26": 2172,
      "Inter": 2173,
      "tabler": 2174,
      "urve": 2175,
      "gent": 2176,
      "ideo": 2177,
      "ubar": 2178,
      "arts": 2179,
      "ĠÐ": 2180,
      "Product": 2181,
      "[];": 2182,
      "Op": 2183,
      "orizont": 2184,
      "place": 2185,
      "ud": 2186,
      "Ġall": 2187,
      "ules": 2188,
      "Ġreg": 2189,
      "Object": 2190,
      "variant": 2191,
      "ĠComponent": 2192,
      "nel": 2193,
      "known": 2194,
      "Ġlink": 2195,
      "tener": 2196,
      "Ġrole": 2197,
      "orizontal": 2198,
      "AR": 2199,
      "<{": 2200,
      "cur": 2201,
      "Ġstop": 2202,
      "Ġcatch": 2203,
      "Position": 2204,
      "lsx": 2205,
      "ĠApp": 2206,
      "Indicator": 2207,
      "now": 2208,
      "gradient": 2209,
      "Ġtotal": 2210,
      "inner": 2211,
      "format": 2212,
      "Response": 2213,
      "ear": 2214,
      "Attributes": 2215,
      "Progress": 2216,
      "orage": 2217,
      "Ġtracking": 2218,
      "Ġconsole": 2219,
      "success": 2220,
      "Ġcustom": 2221,
      "Offset": 2222,
      "Password": 2223,
      "Circle": 2224,
      "70": 2225,
      "sw": 2226,
      "à¤": 2227,
      "ĠEx": 2228,
      "Ids": 2229,
      ".\",": 2230,
      "direct": 2231,
      "ailable": 2232,
      "Fa": 2233,
      "enerate": 2234,
      "ĠStory": 2235,
      "ility": 2236,
      "Drawer": 2237,
      "ial": 2238,
      "Ġease": 2239,
      "actions": 2240,
      "Visible": 2241,
      "closed": 2242,
      "Ġwork": 2243,
      "lit": 2244,
      "process": 2245,
      "panded": 2246,
      "ĠfontSize": 2247,
      "rst": 2248,
      "classNames": 2249,
      "FC": 2250,
      "Ġ28": 2251,
      "Ġtransform": 2252,
      "screen": 2253,
      "Actions": 2254,
      "Ġrequired": 2255,
      "iled": 2256,
      "aly": 2257,
      "Checkbox": 2258,
      "includes": 2259,
      "co": 2260,
      "SE": 2261,
      "ĠTable": 2262,
      "provider": 2263,
      "PI": 2264,
      "ME": 2265,
      "Ġcontrol": 2266,
      "End": 2267,
      "Lis": 2268,
      "['": 2269,
      "mpt": 2270,
      "Nav": 2271,
      "WithoutRef": 2272,
      "Slug": 2273,
      "Valid": 2274,
      "Overlay": 2275,
      "Ġinterface": 2276,
      "case": 2277,
      "ĠstrokeLinecap": 2278,
      "Ġ32": 2279,
      "ithub": 2280,
      "html": 2281,
      "Placeholder": 2282,
      "strong": 2283,
      "Ġare": 2284,
      "va": 2285,
      "update": 2286,
      "admin": 2287,
      "Sheet": 2288,
      "(`": 2289,
      "Ġfe": 2290,
      "Body": 2291,
      "ak": 2292,
      "Frame": 2293,
      "custom": 2294,
      "Ġ\"/": 2295,
      "chart": 2296,
      "Timeout": 2297,
      "Work": 2298,
      "Ġby": 2299,
      "mark": 2300,
      "Ð°": 2301,
      "focus": 2302,
      "ĠY": 2303,
      "wab": 2304,
      "td": 2305,
      "root": 2306,
      "gest": 2307,
      "Current": 2308,
      "Request": 2309,
      "element": 2310,
      "Member": 2311,
      "rency": 2312,
      "Heading": 2313,
      "We": 2314,
      "Types": 2315,
      "Account": 2316,
      "Ġwe": 2317,
      "Ġ/>,": 2318,
      "exportName": 2319,
      "ComponentPropsWithoutRef": 2320,
      "Styles": 2321,
      "Server": 2322,
      "dialog": 2323,
      "CardContent": 2324,
      "meta": 2325,
      "tool": 2326,
      "Toast": 2327,
      "cut": 2328,
      "Ġvi": 2329,
      "ĠReactNode": 2330,
      "Locale": 2331,
      "Ġargs": 2332,
      "ql": 2333,
      "Only": 2334,
      "Ġwill": 2335,
      "vers": 2336,
      "ragment": 2337,
      "nguage": 2338,
      ")\",": 2339,
      "entation": 2340,
      "Menubar": 2341,
      "Ġbase": 2342,
      "oom": 2343,
      "rides": 2344,
      "ODE": 2345,
      "Listener": 2346,
      "Sort": 2347,
      "ublic": 2348,
      "offset": 2349,
      "ĠuseRouter": 2350,
      "Copy": 2351,
      "ĠSh": 2352,
      "ĠRecord": 2353,
      "ĠstrokeLinejoin": 2354,
      "Details": 2355,
      "mx": 2356,
      "FF": 2357,
      "ĠField": 2358,
      "Range": 2359,
      "Session": 2360,
      "shadow": 2361,
      "Ġfiles": 2362,
      "Ġvariants": 2363,
      "ĠCommand": 2364,
      "ister": 2365,
      "derline": 2366,
      "Ġblock": 2367,
      "Class": 2368,
      "Api": 2369,
      "ayment": 2370,
      "ense": 2371,
      "Ġscale": 2372,
      "Ġhtml": 2373,
      "nect": 2374,
      "navigation": 2375,
      "green": 2376,
      "Accordion": 2377,
      "Ġconta": 2378,
      "lick": 2379,
      "-${": 2380,
      "ummary": 2381,
      "ĠCheck": 2382,
      "acing": 2383,
      "ok": 2384,
      "Ġrelative": 2385,
      "ĠMet": 2386,
      "arning": 2387,
      "Ġnode": 2388,
      "render": 2389,
      "={`${": 2390,
      "Ġoutline": 2391,
      "module": 2392,
      "ortcut": 2393,
      "mer": 2394,
      "Rule": 2395,
      "]/": 2396,
      "Ġcontainer": 2397,
      "keys": 2398,
      "router": 2399,
      "ays": 2400,
      "Hover": 2401,
      "Metadata": 2402,
      "Outline": 2403,
      "erty": 2404,
      "pc": 2405,
      "orientation": 2406,
      "ElementRef": 2407,
      "ĠAlertDialog": 2408,
      "cla": 2409,
      "Handler": 2410,
      "Ġtag": 2411,
      "tes": 2412,
      "ĠV": 2413,
      "ang": 2414,
      "tered": 2415,
      "tiv": 2416,
      "uil": 2417,
      "duction": 2418,
      "Ġring": 2419,
      "ĠisLoading": 2420,
      "tadata": 2421,
      "Ġauth": 2422,
      "any": 2423,
      "ĠAd": 2424,
      "ĠCol": 2425,
      "Ġproduct": 2426,
      "Children": 2427,
      "result": 2428,
      "Script": 2429,
      "cursor": 2430,
      "**": 2431,
      "Ġcontext": 2432,
      "HTMLDivElement": 2433,
      "ĠĠĠĠĠĠĠĠĠĠĠĠĠĠĠĠ": 2434,
      "DropdownMenuItem": 2435,
      "Filters": 2436,
      "Read": 2437,
      "lasses": 2438,
      "lus": 2439,
      "Ġaccess": 2440,
      "Ġlast": 2441,
      "token": 2442,
      "Radi": 2443,
      "Ġlayout": 2444,
      "Display": 2445,
      "penden": 2446,
      "ndar": 2447,
      "ĠCon": 2448,
      "AN": 2449,
      "Ġ['": 2450,
      "TableCell": 2451,
      "play": 2452,
      "material": 2453,
      "allet": 2454,
      "RO": 2455,
      "last": 2456,
      "Kit": 2457,
      "docs": 2458,
      "ĠUser": 2459,
      "SelectItem": 2460,
      "vious": 2461,
      "lugin": 2462,
      "ĠSheet": 2463,
      "stack": 2464,
      "ants": 2465,
      "GE": 2466,
      "MenuItem": 2467,
      "pr": 2468,
      "Ġprop": 2469,
      "IC": 2470,
      "ream": 2471,
      "Plasmic": 2472,
      "gap": 2473,
      "wind": 2474,
      "settings": 2475,
      "ighlight": 2476,
      "ding": 2477,
      "control": 2478,
      "ax": 2479,
      "omain": 2480,
      "Project": 2481,
      "Media": 2482,
      "Ġside": 2483,
      "ĠhasVariant": 2484,
      "py": 2485,
      "ategories": 2486,
      "velo": 2487,
      "Ġaction": 2488,
      "Ġtoggle": 2489,
      "rand": 2490,
      "reference": 2491,
      "Price": 2492,
      "component": 2493,
      "Save": 2494,
      "wrap": 2495,
      "mui": 2496,
      "Space": 2497,
      "category": 2498,
      "trim": 2499,
      "cies": 2500,
      "less": 2501,
      "Upload": 2502,
      "AL": 2503,
      "Ġver": 2504,
      "Ġshrink": 2505,
      "head": 2506,
      "125": 2507,
      "undefined": 2508,
      "ked": 2509,
      "']": 2510,
      "Ġmake": 2511,
      "alle": 2512,
      ",\\": 2513,
      "AlertDialog": 2514,
      "Chevron": 2515,
      "urvey": 2516,
      "dashboard": 2517,
      "nav": 2518,
      "ults": 2519,
      "ries": 2520,
      "Keys": 2521,
      "ĠTh": 2522,
      "Ġres": 2523,
      "fill": 2524,
      "with": 2525,
      "gba": 2526,
      "args": 2527,
      "Par": 2528,
      "Ġsource": 2529,
      "rowser": 2530,
      "Ġshould": 2531,
      "workspace": 2532,
      "EventListener": 2533,
      "Ġscroll": 2534,
      "ĠAvatar": 2535,
      "chor": 2536,
      "OT": 2537,
      "Ġread": 2538,
      "cing": 2539,
      "Be": 2540,
      "clsx": 2541,
      "Ġus": 2542,
      "lication": 2543,
      "quare": 2544,
      "upport": 2545,
      "tate": 2546,
      "Ġ60": 2547,
      "script": 2548,
      "Target": 2549,
      "total": 2550,
      "Ġ29": 2551,
      "Case": 2552,
      "ĠImage": 2553,
      "Zm": 2554,
      "leted": 2555,
      "Enter": 2556,
      "sen": 2557,
      "ager": 2558,
      "ped": 2559,
      "xed": 2560,
      "Category": 2561,
      "Ġlocale": 2562,
      "mono": 2563,
      "`;": 2564,
      "tn": 2565,
      "spatch": 2566,
      "ions": 2567,
      "ssue": 2568,
      "Ġ\"}": 2569,
      "Cancel": 2570,
      "normal": 2571,
      "its": 2572,
      "Mutation": 2573,
      "Ġlist": 2574,
      "usp": 2575,
      "Ent": 2576,
      "Ġne": 2577,
      "ĠPopover": 2578,
      "ĠĠĠĠĠ": 2579,
      "href": 2580,
      "popover": 2581,
      "ĠonClose": 2582,
      "Ġprev": 2583,
      "ĠNode": 2584,
      "inset": 2585,
      "avatar": 2586,
      "lank": 2587,
      "lease": 2588,
      "Ġthrow": 2589,
      "ĠTabs": 2590,
      "Enabled": 2591,
      "Ri": 2592,
      "ariables": 2593,
      "tics": 2594,
      "Ġend": 2595,
      "Ġstyles": 2596,
      "shrink": 2597,
      "isLoading": 2598,
      "mix": 2599,
      "remove": 2600,
      "Bottom": 2601,
      "SVG": 2602,
      "://": 2603,
      "Ob": 2604,
      "anner": 2605,
      "Dropdown": 2606,
      "Svg": 2607,
      "Fields": 2608,
      "Address": 2609,
      "TH": 2610,
      "Ġauto": 2611,
      "Method": 2612,
      "Ġpt": 2613,
      "ĠNext": 2614,
      "ENV": 2615,
      "features": 2616,
      "015": 2617,
      "Ġoffset": 2618,
      "UL": 2619,
      "book": 2620,
      "example": 2621,
      "Ġafter": 2622,
      "Fragment": 2623,
      "={!": 2624,
      "NODE": 2625,
      "Radius": 2626,
      "Profile": 2627,
      "pendencies": 2628,
      "Switch": 2629,
      "ution": 2630,
      "Sli": 2631,
      "Ġ34": 2632,
      "errors": 2633,
      "Ġ'',": 2634,
      "Success": 2635,
      "Ġtr": 2636,
      "vide": 2637,
      "sis": 2638,
      "derer": 2639,
      "Pagination": 2640,
      "ulti": 2641,
      "fade": 2642,
      "Copilot": 2643,
      "sktop": 2644,
      "Selection": 2645,
      "Mark": 2646,
      "ingle": 2647,
      "Cap": 2648,
      "bases": 2649,
      "Navigation": 2650,
      "Focus": 2651,
      "ĠLog": 2652,
      "unity": 2653,
      "Ġti": 2654,
      "payload": 2655,
      "AC": 2656,
      "ĠArray": 2657,
      "025": 2658,
      "ations": 2659,
      "ListItem": 2660,
      "entry": 2661,
      "Ġline": 2662,
      "uggest": 2663,
      "Ġ01": 2664,
      "ĠsetOpen": 2665,
      "Ġresponse": 2666,
      "The": 2667,
      "Ġ[]);": 2668,
      "Folder": 2669,
      "Ġ50": 2670,
      "vailable": 2671,
      "ĠhtmlFor": 2672,
      "testid": 2673,
      "Ġbefore": 2674,
      "Args": 2675,
      "erties": 2676,
      "Ġlog": 2677,
      "CO": 2678,
      "prevent": 2679,
      "More": 2680,
      "'],": 2681,
      "uspense": 2682,
      "blank": 2683,
      "que": 2684,
      "Breadcrumb": 2685,
      "}>{": 2686,
      "OpenChange": 2687,
      "ĠSc": 2688,
      "Confirm": 2689,
      "used": 2690,
      "sl": 2691,
      "Ġslug": 2692,
      "]\">": 2693,
      "Gradient": 2694,
      "err": 2695,
      "HTMLAttributes": 2696,
      "Ġvalid": 2697,
      "lazy": 2698,
      "useState": 2699,
      "initial": 2700,
      "production": 2701,
      "ĠNo": 2702,
      "Ġaccount": 2703,
      "Animation": 2704,
      "CardHeader": 2705,
      "={'": 2706,
      "checked": 2707,
      "Ġmx": 2708,
      "SI": 2709,
      "ghost": 2710,
      "odd": 2711,
      "illing": 2712,
      "istory": 2713,
      "Permission": 2714,
      "latform": 2715,
      "Ġrun": 2716,
      "sets": 2717,
      "ĠdefaultValue": 2718,
      "password": 2719,
      "Bound": 2720,
      "Ġph": 2721,
      "invalid": 2722,
      "lations": 2723,
      "tab": 2724,
      "Ġunknown": 2725,
      "Ġ[],": 2726,
      "ason": 2727,
      "Ġ40": 2728,
      "lur": 2729,
      "Order": 2730,
      "preventDefault": 2731,
      "even": 2732,
      "Ġcount": 2733,
      "Fallback": 2734,
      "ĠuseForm": 2735,
      "tag": 2736,
      "toggle": 2737,
      "drop": 2738,
      "Document": 2739,
      "Ð¸": 2740,
      "Ġ{!": 2741,
      "dition": 2742,
      "orted": 2743,
      "255": 2744,
      "ume": 2745,
      "origin": 2746,
      "Ġrel": 2747,
      "ĠChart": 2748,
      "Ġ[]": 2749,
      "radius": 2750,
      "entic": 2751,
      "gment": 2752,
      "tivity": 2753,
      "-(--": 2754,
      "Template": 2755,
      "Tr": 2756,
      "raft": 2757,
      "ointer": 2758,
      "Disabled": 2759,
      "sty": 2760,
      "allow": 2761,
      "Team": 2762,
      "Ġ\"../_": 2763,
      "params": 2764,
      "attern": 2765,
      "range": 2766,
      "Quest": 2767,
      "000": 2768,
      "jsx": 2769,
      "editor": 2770,
      "safe": 2771,
      "other": 2772,
      "cover": 2773,
      "teps": 2774,
      "alytics": 2775,
      "ĠTe": 2776,
      "clu": 2777,
      "ĠonSubmit": 2778,
      "ĠsetShow": 2779,
      "ĠData": 2780,
      "Transition": 2781,
      "Ġpb": 2782,
      "ower": 2783,
      "Demo": 2784,
      "ĠAn": 2785,
      "Flex": 2786,
      "Ġapi": 2787,
      "]\"": 2788,
      "sprite": 2789,
      ")}>": 2790,
      "dropdown": 2791,
      "Ġgenerate": 2792,
      "ĠVariant": 2793,
      "ĠuseTranslation": 2794,
      "Animate": 2795,
      "ular": 2796,
      "Ġcategory": 2797,
      "Ġchange": 2798,
      "tegra": 2799,
      "preview": 2800,
      "Ġhide": 2801,
      "here": 2802,
      "abase": 2803,
      "ĠsetSelected": 2804,
      "Logo": 2805,
      "Get": 2806,
      "annel": 2807,
      "Ġtab": 2808,
      "pos": 2809,
      "Ġ'/": 2810,
      "ligh": 2811,
      "Record": 2812,
      "cs": 2813,
      "US": 2814,
      "Ġ''": 2815,
      "Ġvalues": 2816,
      "[\"": 2817,
      "Ġlocal": 2818,
      "ĠFC": 2819,
      "Storage": 2820,
      "DevIcon": 2821,
      "........": 2822,
      "urrency": 2823,
      "my": 2824,
      "Ġ31": 2825,
      "bility": 2826,
      "Ġad": 2827,
      "evenodd": 2828,
      "Ġ33": 2829,
      "aded": 2830,
      "Ġbreak": 2831,
      "Ġrequest": 2832,
      "Outlined": 2833,
      "Ġcolors": 2834,
      "isit": 2835,
      "Resource": 2836,
      "Ġsty": 2837,
      "Ġbottom": 2838,
      "Pending": 2839,
      "Ġ\"~/": 2840,
      "Al": 2841,
      "ji": 2842,
      "amples": 2843,
      "}/": 2844,
      "scale": 2845,
      "hsl": 2846,
      "Ġ\"../../": 2847,
      "tif": 2848,
      "Ax": 2849,
      "Meta": 2850,
      "Ġdo": 2851,
      "ĠLo": 2852,
      "'),": 2853,
      "nection": 2854,
      "Min": 2855,
      "ollow": 2856,
      "Screen": 2857,
      "Admin": 2858,
      "\"]": 2859,
      "ces": 2860,
      "calc": 2861,
      "ULT": 2862,
      "Web": 2863,
      "wi": 2864,
      "Ġ38": 2865,
      "gth": 2866,
      "values": 2867,
      "mple": 2868,
      "Opacity": 2869,
      "frame": 2870,
      "Files": 2871,
      "uilder": 2872,
      "voice": 2873,
      "ged": 2874,
      "ek": 2875,
      "Feed": 2876,
      "Side": 2877,
      "Ġsign": 2878,
      "Ðµ": 2879,
      "iltered": 2880,
      "Ġout": 2881,
      "author": 2882,
      "Ġdelay": 2883,
      "anguage": 2884,
      "ameters": 2885,
      "Ġ35": 2886,
      "transform": 2887,
      "Dashboard": 2888,
      "Notification": 2889,
      "pur": 2890,
      "CardTitle": 2891,
      "\"></": 2892,
      "FAULT": 2893,
      "And": 2894,
      "fin": 2895,
      "small": 2896,
      "Ġ'../../../": 2897,
      "Ġchecked": 2898,
      "JS": 2899,
      "alendar": 2900,
      "Ġobject": 2901,
      "fit": 2902,
      "modal": 2903,
      "ep": 2904,
      "Ġ'}": 2905,
      "Ġpr": 2906,
      "und": 2907,
      "Ġ[];": 2908,
      "global": 2909,
      "Ġmonth": 2910,
      "ĠFile": 2911,
      "refinedev": 2912,
      "ultip": 2913,
      "ĠK": 2914,
      "}`,": 2915,
      "Safe": 2916,
      "Ġ{\\": 2917,
      "Graph": 2918,
      "underline": 2919,
      "tribute": 2920,
      "replace": 2921,
      "ĠDrawer": 2922,
      "Ġanimation": 2923,
      "yd": 2924,
      "Ġ39": 2925,
      "Int": 2926,
      "LA": 2927,
      "%\"": 2928,
      "Ġbuild": 2929,
      "peri": 2930,
      "ounce": 2931,
      "org": 2932,
      "Ġresource": 2933,
      "ning": 2934,
      "ati": 2935,
      "Ġfirst": 2936,
      "etwork": 2937,
      "Ġclear": 2938,
      "account": 2939,
      "ture": 2940,
      "submit": 2941,
      "ĠDropdownMenuPrimitive": 2942,
      "mr": 2943,
      "graph": 2944,
      "slice": 2945,
      "uncate": 2946,
      "Ġclose": 2947,
      "sr": 2948,
      "ir": 2949,
      "tooltip": 2950,
      "Ġ36": 2951,
      "stamp": 2952,
      "ght": 2953,
      "Len": 2954,
      "\">)": 2955,
      "Lj": 2956,
      "Ġab": 2957,
      "Ġ\"\"": 2958,
      "0000": 2959,
      "SelectPrimitive": 2960,
      "ĠCom": 2961,
      "dAt": 2962,
      "info": 2963,
      "Res": 2964,
      ">}": 2965,
      "percase": 2966,
      "Ġsx": 2967,
      "opup": 2968,
      "ocial": 2969,
      "Ġroot": 2970,
      "png": 2971,
      "čĊ": 2972,
      "Shortcut": 2973,
      "options": 2974,
      "ĠonOpenChange": 2975,
      "zM": 2976,
      "Ġ[&>": 2977,
      "ĠThe": 2978,
      "ĠstopColor": 2979,
      "record": 2980,
      "Slot": 2981,
      "Dark": 2982,
      "/[": 2983,
      "Rect": 2984,
      "ĠPost": 2985,
      "versation": 2986,
      "Ġswitch": 2987,
      "%,": 2988,
      "Ġinline": 2989,
      "Ġ74": 2990,
      "blur": 2991,
      "ical": 2992,
      "Ġsession": 2993,
      "uch": 2994,
      "opied": 2995,
      "ctive": 2996,
      "locale": 2997,
      "Ġhidden": 2998,
      "this": 2999,
      "chat": 3000,
      "Ġteam": 3001,
      "ape": 3002,
      "ĠDE": 3003,
      "Ġ{},": 3004,
      "vertical": 3005,
      "ĠContextMenu": 3006,
      "ÑĤ": 3007,
      "dered": 3008,
      "Ġabsolute": 3009,
      "tact": 3010,
      "Ġ48": 3011,
      "video": 3012,
      "ings": 3013,
      "036": 3014,
      "=\"_": 3015,
      "Remove": 3016,
      "This": 3017,
      "Run": 3018,
      "trigger": 3019,
      "pand": 3020,
      "Ġtoken": 3021,
      "Ġorientation": 3022,
      "ove": 3023,
      "Local": 3024,
      "iny": 3025,
      "swer": 3026,
      "avigate": 3027,
      "Amount": 3028,
      "circle": 3029,
      "ENT": 3030,
      "ĠCustom": 3031,
      "toString": 3032,
      "template": 3033,
      "Function": 3034,
      "Comment": 3035,
      "ueries": 3036,
      "Back": 3037,
      "Arg": 3038,
      "fied": 3039,
      "lapsed": 3040,
      "Tree": 3041,
      "ration": 3042,
      "vite": 3043,
      "{\"": 3044,
      "'s": 3045,
      "())": 3046,
      "Ter": 3047,
      "Ms": 3048,
      "service": 3049,
      "Track": 3050,
      "oice": 3051,
      "Ġserver": 3052,
      "sions": 3053,
      "child": 3054,
      "Ġ#": 3055,
      "Ð¾": 3056,
      "Feature": 3057,
      "session": 3058,
      "Weight": 3059,
      "Ġwhen": 3060,
      "ĠJSON": 3061,
      "Example": 3062,
      "--------": 3063,
      "sent": 3064,
      "hel": 3065,
      "InputGroup": 3066,
      "model": 3067,
      "Hel": 3068,
      "role": 3069,
      "ES": 3070,
      "Ġob": 3071,
      "uge": 3072,
      "Ġmy": 3073,
      "team": 3074,
      "Loader": 3075,
      "Ġrecord": 3076,
      "ars": 3077,
      "Tags": 3078,
      "ĠbackgroundColor": 3079,
      "alert": 3080,
      "ĠToast": 3081,
      "pages": 3082,
      "day": 3083,
      "CopilotKit": 3084,
      "ĠonSelect": 3085,
      "ong": 3086,
      ">({": 3087,
      "Ġspe": 3088,
      "ĠChevron": 3089,
      "ote": 3090,
      "Ġhave": 3091,
      "128": 3092,
      "clip": 3093,
      "ighligh": 3094,
      "333": 3095,
      "uct": 3096,
      "ĠURL": 3097,
      "Ġtool": 3098,
      "Length": 3099,
      "ĠReactElement": 3100,
      "FormControl": 3101,
      ".\"": 3102,
      "Ġ72": 3103,
      "Interval": 3104,
      "lign": 3105,
      "Plus": 3106,
      "ĠAccordion": 3107,
      "Manager": 3108,
      "Ġsuccess": 3109,
      "change": 3110,
      "solved": 3111,
      "cell": 3112,
      "Ġorder": 3113,
      "badge": 3114,
      "Us": 3115,
      "Tx": 3116,
      "Ġcomponents": 3117,
      "Ġ37": 3118,
      "Player": 3119,
      "Expanded": 3120,
      "ĠThis": 3121,
      "Ġcap": 3122,
      "tach": 3123,
      "Ġremove": 3124,
      "Ġmemo": 3125,
      "prop": 3126,
      "siz": 3127,
      "Complete": 3128,
      "Fetch": 3129,
      "TableRow": 3130,
      "Ġdelete": 3131,
      "Ġcom": 3132,
      "/>": 3133,
      "Failed": 3134,
      ")',": 3135,
      "step": 3136,
      "Ġfin": 3137,
      "Lower": 3138,
      "Components": 3139,
      "horizontal": 3140,
      "667": 3141,
      "article": 3142,
      "Dependencies": 3143,
      "first": 3144,
      "Ġback": 3145,
      "AD": 3146,
      "ĠTheme": 3147,
      "Full": 3148,
      "chase": 3149,
      "ranch": 3150,
      "ence": 3151,
      "by": 3152,
      "FormItem": 3153,
      "414": 3154,
      "ride": 3155,
      "Direction": 3156,
      "Ġwhite": 3157,
      "ĠSp": 3158,
      "Ġparse": 3159,
      "ĠComp": 3160,
      "Ġeditor": 3161,
      "Ġmobile": 3162,
      "016": 3163,
      "Ġfull": 3164,
      "sive": 3165,
      "Ġcard": 3166,
      "viron": 3167,
      "ultiple": 3168,
      "ĠSet": 3169,
      "odo": 3170,
      "Ġtrigger": 3171,
      ".',": 3172,
      "hes": 3173,
      "Language": 3174,
      "sort": 3175,
      "Spe": 3176,
      "ogle": 3177,
      "ĠList": 3178,
      "tight": 3179,
      "lance": 3180,
      "ple": 3181,
      "Ġk": 3182,
      "split": 3183,
      "sheet": 3184,
      "ĠLabel": 3185,
      "Ġmore": 3186,
      "scribe": 3187,
      "Ġfallback": 3188,
      "Ġallow": 3189,
      "ans": 3190,
      "heading": 3191,
      "Ġpl": 3192,
      "Json": 3193,
      "Reg": 3194,
      "RadioGroup": 3195,
      "Combobox": 3196,
      "AI": 3197,
      "Renderer": 3198,
      "Ġtw": 3199,
      "ä¸": 3200,
      "Rows": 3201,
      "erson": 3202,
      "github": 3203,
      "Ġbody": 3204,
      "nextjs": 3205,
      "ier": 3206,
      "Initial": 3207,
      "Ġweb": 3208,
      "ured": 3209,
      "Columns": 3210,
      "question": 3211,
      "ButtonProps": 3212,
      "witter": 3213,
      ".</": 3214,
      "375": 3215,
      "footer": 3216,
      "nowrap": 3217,
      "KeyDown": 3218,
      "stringify": 3219,
      "%]": 3220,
      "Ġsave": 3221,
      "adcn": 3222,
      "Role": 3223,
      "Formatted": 3224,
      "Detail": 3225,
      "ĠAdd": 3226,
      "zoom": 3227,
      "ugeicons": 3228,
      "delete": 3229,
      "Duration": 3230,
      "###": 3231,
      "TION": 3232,
      "Entry": 3233,
      "tabs": 3234,
      "Level": 3235,
      "system": 3236,
      "images": 3237,
      "ĠGet": 3238,
      "acy": 3239,
      "Ġcell": 3240,
      "hor": 3241,
      "ĠTime": 3242,
      "Ġuppercase": 3243,
      "ĠalignItems": 3244,
      "serve": 3245,
      "document": 3246,
      "Li": 3247,
      "TooltipContent": 3248,
      "Ġstep": 3249,
      "Press": 3250,
      "osp": 3251,
      "digo": 3252,
      "ĠsetTimeout": 3253,
      "Ġpayload": 3254,
      "Static": 3255,
      "Ġstore": 3256,
      "Ġmetadata": 3257,
      "]]:": 3258,
      "Ġcss": 3259,
      "osphor": 3260,
      "Errors": 3261,
      "AGE": 3262,
      "Book": 3263,
      "Callback": 3264,
      "ared": 3265,
      "Ġcy": 3266,
      "Auto": 3267,
      "Ġap": 3268,
      "off": 3269,
      "Ġ42": 3270,
      "azy": 3271,
      "LO": 3272,
      "antd": 3273,
      "EX": 3274,
      "Ġclip": 3275,
      "Ġdesktop": 3276,
      "Organization": 3277,
      "Ġtooltip": 3278,
      "Ġoption": 3279,
      "ĠisActive": 3280,
      "Ġ//": 3281,
      "try": 3282,
      "Ġctx": 3283,
      "ackage": 3284,
      "Agent": 3285,
      "Background": 3286,
      "checkbox": 3287,
      "local": 3288,
      "ĠType": 3289,
      "ĠJSX": 3290,
      "\\\"": 3291,
      "ĠNavigation": 3292,
      "mg": 3293,
      "pers": 3294,
      "Align": 3295,
      "Ġ64": 3296,
      "location": 3297,
      "Ġ@": 3298,
      "Ġ{};": 3299,
      "Question": 3300,
      "Ph": 3301,
      "zone": 3302,
      "Ap": 3303,
      "save": 3304,
      "indigo": 3305,
      "Ġfa": 3306,
      "Suspense": 3307,
      "Ġcx": 3308,
      "LowerCase": 3309,
      "member": 3310,
      "ix": 3311,
      "num": 3312,
      "cket": 3313,
      "ĠDef": 3314,
      "123": 3315,
      "products": 3316,
      "TY": 3317,
      "ĠfontWeight": 3318,
      "Ġl": 3319,
      "Ġmen": 3320,
      "Service": 3321,
      "io": 3322,
      "webiny": 3323,
      "Ġexpect": 3324,
      "Ġregistry": 3325,
      "boolean": 3326,
      "ublish": 3327,
      "Found": 3328,
      "ĠCode": 3329,
      "man": 3330,
      "Ġ58": 3331,
      "charts": 3332,
      "Ġ**": 3333,
      "Ġreset": 3334,
      "(\"\");": 3335,
      "Version": 3336,
      "cu": 3337,
      "ily": 3338,
      "Login": 3339,
      "gener": 3340,
      "ĠUse": 3341,
      "ĠView": 3342,
      "sable": 3343,
      "logo": 3344,
      "isOpen": 3345,
      "Obj": 3346,
      "Ġavatar": 3347,
      "isting": 3348,
      "vate": 3349,
      "loud": 3350,
      "167": 3351,
      "ĠSelectPrimitive": 3352,
      "enti": 3353,
      "layer": 3354,
      "toast": 3355,
      "ĠMenu": 3356,
      "Banner": 3357,
      "Video": 3358,
      "profile": 3359,
      "transition": 3360,
      "lf": 3361,
      "Span": 3362,
      "ĠsearchParams": 3363,
      "Ġ'~/": 3364,
      "2024": 3365,
      "Ġprojectcss": 3366,
      "ĠexportName": 3367,
      "sibility": 3368,
      "flo": 3369,
      "Ġavailable": 3370,
      "Checked": 3371,
      "gram": 3372,
      "Ġenable": 3373,
      "ocused": 3374,
      "login": 3375,
      "toLowerCase": 3376,
      "nap": 3377,
      "Comm": 3378,
      "TA": 3379,
      "ellow": 3380,
      "loy": 3381,
      "ĠPri": 3382,
      "ĠDefault": 3383,
      "modules": 3384,
      "bounce": 3385,
      "KE": 3386,
      "lic": 3387,
      "ĠFe": 3388,
      "ĠDEFAULT": 3389,
      "cer": 3390,
      "DropdownMenuPrimitive": 3391,
      "Ġorigin": 3392,
      "vironment": 3393,
      "Ġ>=": 3394,
      "CardDescription": 3395,
      "Ġchart": 3396,
      "Ð½": 3397,
      "mixicon": 3398,
      "ik": 3399,
      "placeholder": 3400,
      "Subscription": 3401,
      "ĠPar": 3402,
      "API": 3403,
      "Editing": 3404,
      "Ġlanguage": 3405,
      "language": 3406,
      "Icons": 3407,
      "ĠMo": 3408,
      "price": 3409,
      "Drop": 3410,
      "lated": 3411,
      "ferrer": 3412,
      "Hub": 3413,
      "icy": 3414,
      "Ġnormal": 3415,
      "Ġsite": 3416,
      "als": 3417,
      "ValueChange": 3418,
      "response": 3419,
      "Cre": 3420,
      "005": 3421,
      "UT": 3422,
      "ging": 3423,
      "ĠuseContext": 3424,
      "purple": 3425,
      "Widget": 3426,
      "blog": 3427,
      "ĠonMouse": 3428,
      "Carousel": 3429,
      "gend": 3430,
      "ause": 3431,
      "lective": 3432,
      "Ġ59": 3433,
      "Survey": 3434,
      "Ġparent": 3435,
      "EL": 3436,
      "Sm": 3437,
      "xy": 3438,
      "ĠborderRadius": 3439,
      "Ġlucide": 3440,
      "Ġ56": 3441,
      "Go": 3442,
      "Window": 3443,
      "moji": 3444,
      "udioCtx": 3445,
      "103": 3446,
      "Ġpathname": 3447,
      "WithChildren": 3448,
      "Ġ41": 3449,
      "Ġcolumns": 3450,
      "Ġ45": 3451,
      "Share": 3452,
      "Ġcomm": 3453,
      "design": 3454,
      "ĠisOpen": 3455,
      "ĠâĢ": 3456,
      "Ġsection": 3457,
      "point": 3458,
      "ĠsetError": 3459,
      "ING": 3460,
      "ĠclassNames": 3461,
      "ĠYou": 3462,
      "onChange": 3463,
      "address": 3464,
      "mob": 3465,
      "Ġhugeicons": 3466,
      "uggestions": 3467,
      "cret": 3468,
      "Properties": 3469,
      "Ġstyled": 3470,
      "Ġtabler": 3471,
      "bd": 3472,
      "istant": 3473,
      "è¯": 3474,
      "oreferrer": 3475,
      "stri": 3476,
      "ctx": 3477,
      "MS": 3478,
      "Messages": 3479,
      "asic": 3480,
      "Qu": 3481,
      "animation": 3482,
      "ĠModal": 3483,
      "then": 3484,
      "Access": 3485,
      "posts": 3486,
      "625": 3487,
      "Ġprovider": 3488,
      "Month": 3489,
      "AP": 3490,
      "Font": 3491,
      "ĠdefaultMessage": 3492,
      "ðŁ": 3493,
      "click": 3494,
      "Ġsort": 3495,
      "itHub": 3496,
      "rgba": 3497,
      "akra": 3498,
      "046": 3499,
      "Ġpreview": 3500,
      "IconProps": 3501,
      "fr": 3502,
      "Ġtranslate": 3503,
      "Ġused": 3504,
      "fields": 3505,
      "LI": 3506,
      "Gener": 3507,
      "Last": 3508,
      "ĠOmit": 3509,
      "Ġ]": 3510,
      "pense": 3511,
      "ĠVariantProps": 3512,
      "Home": 3513,
      "Ġ46": 3514,
      "progress": 3515,
      "Ġsettings": 3516,
      "ĠsetActive": 3517,
      "Ġdynamic": 3518,
      "hero": 3519,
      "aster": 3520,
      "asc": 3521,
      "Ġload": 3522,
      "imple": 3523,
      "Wh": 3524,
      "Ġcva": 3525,
      "Ġvisible": 3526,
      "tify": 3527,
      "Has": 3528,
      "plan": 3529,
      "Boolean": 3530,
      "UB": 3531,
      "Ġ></": 3532,
      "hedu": 3533,
      "widget": 3534,
      "Ġphosphor": 3535,
      "ches": 3536,
      "Ġremixicon": 3537,
      "ampa": 3538,
      "fixed": 3539,
      "alet": 3540,
      "ĠCreate": 3541,
      "Plan": 3542,
      "ampaign": 3543,
      "Ġvideo": 3544,
      "rontend": 3545,
      "ounts": 3546,
      "Ġredirect": 3547,
      "IconPlaceholder": 3548,
      "ĠProduct": 3549,
      "Presen": 3550,
      "ĠNumber": 3551,
      "files": 3552,
      "105": 3553,
      "HE": 3554,
      "ĠMetadata": 3555,
      "free": 3556,
      "york": 3557,
      "ĠLe": 3558,
      "mbed": 3559,
      "vert": 3560,
      "rotate": 3561,
      "mote": 3562,
      "Ġprice": 3563,
      "ï¼": 3564,
      "Ġdef": 3565,
      "af": 3566,
      "posit": 3567,
      "256": 3568,
      "Ġagent": 3569,
      "Ġgradient": 3570,
      "Ġprocess": 3571,
      "135": 3572,
      "Ġxl": 3573,
      "Ġ200": 3574,
      "ĠMenubar": 3575,
      "Ġmotion": 3576,
      "position": 3577,
      "rate": 3578,
      "ĠPre": 3579,
      "ĠBadge": 3580,
      "Ġkeyof": 3581,
      "{'": 3582,
      "coss": 3583,
      "Cache": 3584,
      "Ġinstance": 3585,
      "Ġ[...": 3586,
      "unk": 3587,
      "ene": 3588,
      "Ġorganization": 3589,
      "entries": 3590,
      "agraph": 3591,
      "Not": 3592,
      "overflow": 3593,
      "register": 3594,
      "(\"/": 3595,
      "collapsible": 3596,
      "ĠRa": 3597,
      "ĠTypography": 3598,
      "Collapsible": 3599,
      "Names": 3600,
      "scend": 3601,
      "ope": 3602,
      "tric": 3603,
      "ĠSearch": 3604,
      "077": 3605,
      "Ġ}>": 3606,
      "[])": 3607,
      "spe": 3608,
      "Move": 3609,
      "allowed": 3610,
      "ake": 3611,
      "orange": 3612,
      "Atom": 3613,
      "($": 3614,
      "Ġ44": 3615,
      "Blur": 3616,
      "ND": 3617,
      "skeleton": 3618,
      "Ġdirection": 3619,
      "sure": 3620,
      "Ġ43": 3621,
      "(-": 3622,
      "ĠFlex": 3623,
      "Ġservice": 3624,
      "yellow": 3625,
      "sponsive": 3626,
      "113": 3627,
      "omplete": 3628,
      "med": 3629,
      "ĠregistryDependencies": 3630,
      "Ġsol": 3631,
      "Do": 3632,
      "_,": 3633,
      "original": 3634,
      "Prompt": 3635,
      "Ġmethod": 3636,
      "Ġ52": 3637,
      "Ġmember": 3638,
      "formation": 3639,
      "Math": 3640,
      "Stream": 3641,
      "linearGradient": 3642,
      "Motion": 3643,
      "native": 3644,
      ")/": 3645,
      "(#": 3646,
      "disc": 3647,
      "website": 3648,
      "elements": 3649,
      "peat": 3650,
      "Ġpassword": 3651,
      "run": 3652,
      "ĠSub": 3653,
      "Ġ47": 3654,
      "108": 3655,
      "fic": 3656,
      "Events": 3657,
      "Ġusing": 3658,
      "amily": 3659,
      "pla": 3660,
      "ĠLayout": 3661,
      "Ġneed": 3662,
      "utate": 3663,
      "ocomplete": 3664,
      "Ġ55": 3665,
      "Ġmodel": 3666,
      "Axis": 3667,
      "ÑĢ": 3668,
      "ĠAuth": 3669,
      "056": 3670,
      "Global": 3671,
      "RadioItem": 3672,
      "canvas": 3673,
      "ĠMessage": 3674,
      "reui": 3675,
      "875": 3676,
      "overed": 3677,
      "ful": 3678,
      "arted": 3679,
      "Ġtags": 3680,
      "Task": 3681,
      "DialogContent": 3682,
      "nding": 3683,
      "Boundary": 3684,
      "ATE": 3685,
      "Ġplace": 3686,
      "());": 3687,
      "999": 3688,
      "PropType": 3689,
      "very": 3690,
      "illed": 3691,
      "Refresh": 3692,
      "Ġtest": 3693,
      "graphql": 3694,
      "à¦": 3695,
      "Ġaddress": 3696,
      "ION": 3697,
      "`.": 3698,
      "ĠuseQuery": 3699,
      "CE": 3700,
      "Ġinclu": 3701,
      "align": 3702,
      "ld": 3703,
      "Ġ__": 3704,
      "Ġmessages": 3705,
      "Ġ75": 3706,
      "138": 3707,
      "051": 3708,
      "ĠRef": 3709,
      "Ġ53": 3710,
      "atabase": 3711,
      "tegration": 3712,
      "addEventListener": 3713,
      "Metri": 3714,
      "Ġmenu": 3715,
      "FI": 3716,
      "come": 3717,
      "ish": 3718,
      "Call": 3719,
      "](/": 3720,
      "thing": 3721,
      "192": 3722,
      "organization": 3723,
      "polar": 3724,
      "media": 3725,
      "ĠRo": 3726,
      "Test": 3727,
      "Ġcache": 3728,
      "CheckboxItem": 3729,
      "InputElement": 3730,
      "anced": 3731,
      "(\"@/": 3732,
      "Import": 3733,
      "shot": 3734,
      "miss": 3735,
      "ScrollArea": 3736,
      "vh": 3737,
      "Year": 3738,
      "username": 3739,
      "Ġupdated": 3740,
      "direction": 3741,
      "ease": 3742,
      "ĠItem": 3743,
      "aint": 3744,
      "Slider": 3745,
      "Ġ!!": 3746,
      "drawer": 3747,
      "ĠOr": 3748,
      "Each": 3749,
      "OM": 3750,
      "agation": 3751,
      "ached": 3752,
      "TableHead": 3753,
      "Ġ61": 3754,
      "Ġ[`": 3755,
      "You": 3756,
      "reset": 3757,
      "Ġday": 3758,
      "Ġour": 3759,
      "First": 3760,
      "gets": 3761,
      "ĠĠĠĠĠĠĠ": 3762,
      "window": 3763,
      "Propagation": 3764,
      "Ġpointer": 3765,
      "alette": 3766,
      "ploy": 3767,
      "Ġ...(": 3768,
      "Ġcategories": 3769,
      "spacing": 3770,
      "Ġ73": 3771,
      "Ġ70": 3772,
      "est": 3773,
      "ini": 3774,
      "Posts": 3775,
      "Ġcopy": 3776,
      "Ġ57": 3777,
      "150": 3778,
      "duration": 3779,
      "Ġag": 3780,
      "idd": 3781,
      "brand": 3782,
      "Mi": 3783,
      "Summary": 3784,
      "))\",": 3785,
      "ĠX": 3786,
      "144": 3787,
      "Pages": 3788,
      "Ġother": 3789,
      "ling": 3790,
      "052": 3791,
      "accordion": 3792,
      "Presence": 3793,
      "Reset": 3794,
      "Ġsup": 3795,
      "<'": 3796,
      "ĠSign": 3797,
      "ĠBreadcrumb": 3798,
      "Ġ{(": 3799,
      "Ġobserver": 3800,
      "tin": 3801,
      "verse": 3802,
      "oint": 3803,
      "Colors": 3804,
      "constants": 3805,
      "IS": 3806,
      "Ġgo": 3807,
      "Main": 3808,
      "ĠsetLoading": 3809,
      "Entity": 3810,
      "Markdown": 3811,
      "133": 3812,
      "Ġwhitespace": 3813,
      "bri": 3814,
      "Ġplan": 3815,
      "Popup": 3816,
      "resource": 3817,
      ":-": 3818,
      "},": 3819,
      "Host": 3820,
      "Part": 3821,
      "projects": 3822,
      "ĠSe": 3823,
      "El": 3824,
      "072": 3825,
      "FieldLabel": 3826,
      "Hero": 3827,
      "Transaction": 3828,
      "062": 3829,
      "SearchParams": 3830,
      "FormLabel": 3831,
      "OS": 3832,
      "ĠArrow": 3833,
      "tiary": 3834,
      "urchase": 3835,
      "Load": 3836,
      "enticated": 3837,
      "ĠDialogPrimitive": 3838,
      "iddle": 3839,
      "Workflow": 3840,
      "Ġext": 3841,
      "tt": 3842,
      "Ġscreen": 3843,
      "AME": 3844,
      "Ġcal": 3845,
      "itable": 3846,
      "allen": 3847,
      "pend": 3848,
      "ĠChat": 3849,
      "Flow": 3850,
      "Tokens": 3851,
      "allenge": 3852,
      "107": 3853,
      "Ġ]}": 3854,
      "Ġ80": 3855,
      "Ġlevel": 3856,
      "ĠonValueChange": 3857,
      "justify": 3858,
      "Stats": 3859,
      "wrapper": 3860,
      "Builder": 3861,
      "ticles": 3862,
      "(({": 3863,
      "ĠString": 3864,
      "134": 3865,
      "Ġ90": 3866,
      "Horizontal": 3867,
      "]?.": 3868,
      "grade": 3869,
      "950": 3870,
      "erge": 3871,
      "fier": 3872,
      "ship": 3873,
      "names": 3874,
      "do": 3875,
      "'])": 3876,
      "Ġhel": 3877,
      "'t": 3878,
      "dom": 3879,
      "ĠEdit": 3880,
      "redu": 3881,
      "('/": 3882,
      "Collection": 3883,
      "ĠsetCurrent": 3884,
      "Env": 3885,
      "lapse": 3886,
      "uni": 3887,
      "Ġmodule": 3888,
      "579": 3889,
      "Ġ49": 3890,
      "ness": 3891,
      "}`;": 3892,
      "boarding": 3893,
      "Fn": 3894,
      ">>": 3895,
      "tailwind": 3896,
      "metadata": 3897,
      "Ġqu": 3898,
      "ĠRoot": 3899,
      "Ġlike": 3900,
      "]\",": 3901,
      "Submitting": 3902,
      "uid": 3903,
      "Ġ}));": 3904,
      "oto": 3905,
      "ĠScroll": 3906,
      "ald": 3907,
      "Ġenabled": 3908,
      "public": 3909,
      "copilot": 3910,
      "FormattedMessage": 3911,
      "Ġyup": 3912,
      "ĠPagination": 3913,
      "reden": 3914,
      "Keyboard": 3915,
      "112": 3916,
      "ĠProp": 3917,
      "Payload": 3918,
      "apitable": 3919,
      "Dynamic": 3920,
      "rows": 3921,
      "textarea": 3922,
      "Primitives": 3923,
      "Ġ'$": 3924,
      "?.(": 3925,
      "refetch": 3926,
      "opener": 3927,
      "ĠStyle": 3928,
      "118": 3929,
      "Links": 3930,
      "åı": 3931,
      "skill": 3932,
      "pb": 3933,
      "parent": 3934,
      "forEach": 3935,
      "FormField": 3936,
      "Ġerrors": 3937,
      "Src": 3938,
      "Classes": 3939,
      "uff": 3940,
      "Ġmatch": 3941,
      "ĠjustifyContent": 3942,
      "Ġ1000": 3943,
      "102": 3944,
      "ĠBox": 3945,
      "TO": 3946,
      "ĠfillRule": 3947,
      "136": 3948,
      "External": 3949,
      "Viewport": 3950,
      "Ġlocation": 3951,
      "schema": 3952,
      "ulse": 3953,
      "Strings": 3954,
      "Ġ66": 3955,
      "request": 3956,
      "lash": 3957,
      "arke": 3958,
      "connect": 3959,
      "Ġ68": 3960,
      "urface": 3961,
      "pending": 3962,
      "ĠHome": 3963,
      "Ġcanvas": 3964,
      "Payment": 3965,
      "ĠCheckbox": 3966,
      "sizable": 3967,
      "arac": 3968,
      "KEY": 3969,
      "Ġexample": 3970,
      "contexts": 3971,
      "sson": 3972,
      "ĠMeta": 3973,
      "edback": 3974,
      "feature": 3975,
      "172": 3976,
      "ditional": 3977,
      "Ġrows": 3978,
      "removeEventListener": 3979,
      "Ġsupport": 3980,
      "ĠBase": 3981,
      "Lim": 3982,
      "ĠFilter": 3983,
      "Ġ62": 3984,
      "åĪ": 3985,
      "[&": 3986,
      "ounter": 3987,
      "104": 3988,
      "ĠisMobile": 3989,
      "separator": 3990,
      "Property": 3991,
      "ookie": 3992,
      "lerk": 3993,
      "ched": 3994,
      "ruct": 3995,
      "ĠuseTheme": 3996,
      "Total": 3997,
      "tain": 3998,
      "Ġ},\\": 3999,
      "tools": 4000,
      "Plugin": 4001,
      "wallet": 4002,
      "DB": 4003,
      "iod": 4004,
      "Copied": 4005,
      "DateTime": 4006,
      "Ġfound": 4007,
      "ee": 4008,
      "ĠuseApp": 4009,
      "Ġml": 4010,
      "Match": 4011,
      "124": 4012,
      "pth": 4013,
      "Ñģ": 4014,
      "emer": 4015,
      "656": 4016,
      "TooltipTrigger": 4017,
      "btn": 4018,
      "Ġ51": 4019,
      "Controller": 4020,
      "conds": 4021,
      "providers": 4022,
      "SelectTrigger": 4023,
      "ĠToggle": 4024,
      "lag": 4025,
      "Vertical": 4026,
      "Highlight": 4027,
      "ĠCarousel": 4028,
      "Ġabout": 4029,
      "shed": 4030,
      "kill": 4031,
      "emerald": 4032,
      "ĠsetValue": 4033,
      "tribut": 4034,
      "Ġonly": 4035,
      "actor": 4036,
      "panel": 4037,
      "pathname": 4038,
      "ĠUI": 4039,
      "useEffect": 4040,
      "Styled": 4041,
      "CON": 4042,
      "ĠCombobox": 4043,
      "amber": 4044,
      "={({": 4045,
      "%',": 4046,
      "cept": 4047,
      "copy": 4048,
      "variants": 4049,
      "Ġass": 4050,
      "ATION": 4051,
      "001": 4052,
      "ourse": 4053,
      "ĠAPI": 4054,
      "hide": 4055,
      "Ġnow": 4056,
      "command": 4057,
      "oft": 4058,
      "part": 4059,
      "Workspace": 4060,
      "Ġ65": 4061,
      ")'": 4062,
      "mat": 4063,
      "ublished": 4064,
      "Ġparameters": 4065,
      "Light": 4066,
      "082": 4067,
      "entity": 4068,
      "Ġrotate": 4069,
      "stopPropagation": 4070,
      "ailwind": 4071,
      "ification": 4072,
      "176": 4073,
      "EXT": 4074,
      "Ġ85": 4075,
      "OTP": 4076,
      ")}</": 4077,
      "etter": 4078,
      "HTMLInputElement": 4079,
      "LIC": 4080,
      "home": 4081,
      "ority": 4082,
      "stroke": 4083,
      "tags": 4084,
      "duce": 4085,
      "Overrides": 4086,
      "SelectContent": 4087,
      "Stri": 4088,
      "Dispatch": 4089,
      "Ġmr": 4090,
      "Anchor": 4091,
      "Results": 4092,
      "Shadow": 4093,
      "Ġ67": 4094,
      "Ġ54": 4095,
      "agent": 4096,
      "words": 4097,
      "ĠNavigationMenu": 4098,
      "queries": 4099,
      "ĠSettings": 4100,
      "Param": 4101,
      "Chain": 4102,
      "DropdownMenuContent": 4103,
      "ĠWe": 4104,
      "access": 4105,
      "ĠCardContent": 4106,
      "utocomplete": 4107,
      "IDE": 4108,
      "Ġdispatch": 4109,
      "ssues": 4110,
      "122": 4111,
      "Variables": 4112,
      "intl": 4113,
      "Day": 4114,
      "rib": 4115,
      "radio": 4116,
      "Ġwhile": 4117,
      "MD": 4118,
      "ĠZ": 4119,
      "switch": 4120,
      "Location": 4121,
      "168": 4122,
      "CH": 4123,
      "...\"": 4124,
      "quire": 4125,
      "Currency": 4126,
      "square": 4127,
      "ĠU": 4128,
      "Ġ71": 4129,
      "references": 4130,
      "067": 4131,
      "Divider": 4132,
      "centage": 4133,
      "validate": 4134,
      "Ġchat": 4135,
      "useMemo": 4136,
      "shadcn": 4137,
      "Ġ69": 4138,
      "106": 4139,
      "111": 4140,
      "Mod": 4141,
      "Ġglobal": 4142,
      "aving": 4143,
      "tio": 4144,
      "SubTrigger": 4145,
      "void": 4146,
      "antity": 4147,
      "Ġcollection": 4148,
      "after": 4149,
      "latest": 4150,
      "ital": 4151,
      "Oper": 4152,
      "pm": 4153,
      "Multi": 4154,
      "Ġrgba": 4155,
      "Ġ--": 4156,
      "noopener": 4157,
      "ĠHeader": 4158,
      "CSS": 4159,
      "comment": 4160,
      "fetch": 4161,
      "Inner": 4162,
      "Clip": 4163,
      "SidebarMenu": 4164,
      "ported": 4165,
      "224": 4166,
      "amount": 4167,
      "uf": 4168,
      "Ġlogo": 4169,
      ">();": 4170,
      "Ġschema": 4171,
      "ĠCSS": 4172,
      "Ġcancel": 4173,
      "Previous": 4174,
      "month": 4175,
      "Limit": 4176,
      "My": 4177,
      "anstack": 4178,
      "Ġown": 4179,
      "Ġ<=": 4180,
      "scendants": 4181,
      "Ġtruncate": 4182,
      "å¤": 4183,
      "Ass": 4184,
      "142": 4185,
      "ancy": 4186,
      "Ġtick": 4187,
      "Ġone": 4188,
      "ĠĠĠĠĠĠĠĠĠĠĠĠĠĠĠĠĠĠĠĠĠĠĠĠĠĠĠĠĠĠĠĠ": 4189,
      "sma": 4190,
      "?.[": 4191,
      "DialogTitle": 4192,
      "Docs": 4193,
      "PO": 4194,
      "')}</": 4195,
      "IconButton": 4196,
      "Usage": 4197,
      "System": 4198,
      "Ġdocs": 4199,
      "ĠTrans": 4200,
      "dail": 4201,
      "blocks": 4202,
      "057": 4203,
      "Units": 4204,
      "109": 4205,
      "Primary": 4206,
      "ool": 4207,
      "apps": 4208,
      "Ġworkspace": 4209,
      "[]>(": 4210,
      "Border": 4211,
      "unnel": 4212,
      "Ġprimary": 4213,
      "Required": 4214,
      "=${": 4215,
      "examples": 4216,
      "164": 4217,
      "cmd": 4218,
      "Ġnotification": 4219,
      "115": 4220,
      "starts": 4221,
      "143": 4222,
      "empty": 4223,
      "alance": 4224,
      "Ġproperty": 4225,
      "ich": 4226,
      "041": 4227,
      "Ġprogress": 4228,
      "137": 4229,
      "quad": 4230,
      "Domain": 4231,
      "parse": 4232,
      "Connect": 4233,
      "filters": 4234,
      "sert": 4235,
      "Ġtemplate": 4236,
      "Ġ91": 4237,
      "Ow": 4238,
      "task": 4239,
      "atis": 4240,
      "antine": 4241,
      "Ġ63": 4242,
      "cp": 4243,
      "match": 4244,
      "293": 4245,
      "ighlighted": 4246,
      "æľ": 4247,
      "031": 4248,
      "dot": 4249,
      "288": 4250,
      "Ġ}).": 4251,
      "180": 4252,
      "plasmicapp": 4253,
      "NT": 4254,
      "(/": 4255,
      "tanstack": 4256,
      "Lock": 4257,
      "messages": 4258,
      "missions": 4259,
      "anding": 4260,
      "random": 4261,
      "route": 4262,
      "her": 4263,
      "._": 4264,
      "Ġ[])": 4265,
      "ia": 4266,
      "vanced": 4267,
      "deg": 4268,
      "Ġman": 4269,
      "ĠAI": 4270,
      "024": 4271,
      "Bg": 4272,
      "139": 4273,
      "Leave": 4274,
      "ha": 4275,
      "ĠWeb": 4276,
      "ById": 4277,
      "DropdownMenuTrigger": 4278,
      "counts": 4279,
      "Ġheaders": 4280,
      "ana": 4281,
      "Delay": 4282,
      "507": 4283,
      "Timeline": 4284,
      "Ġvar": 4285,
      "pha": 4286,
      "ract": 4287,
      "188": 4288,
      "Ġlang": 4289,
      "Users": 4290,
      "Family": 4291,
      "angle": 4292,
      "andbox": 4293,
      "Ġvariables": 4294,
      "ĠContent": 4295,
      "chakra": 4296,
      "Ġ%": 4297,
      "veloper": 4298,
      "012": 4299,
      "\"/>": 4300,
      "ĠColor": 4301,
      "ĠUn": 4302,
      "ints": 4303,
      "bug": 4304,
      "redential": 4305,
      "Sync": 4306,
      "should": 4307,
      "Ġ110": 4308,
      "OL": 4309,
      "ank": 4310,
      "Ġ==": 4311,
      "fies": 4312,
      "Clear": 4313,
      "collection": 4314,
      "primitive": 4315,
      "\">;": 4316,
      "isArray": 4317,
      "Toolbar": 4318,
      "Ġbox": 4319,
      "Attribute": 4320,
      "Ġsolid": 4321,
      "%\",": 4322,
      "Ġfilename": 4323,
      "006": 4324,
      "ãģ": 4325,
      "152": 4326,
      "Download": 4327,
      "ArrowRight": 4328,
      "116": 4329,
      ":</": 4330,
      "................": 4331,
      "Calendar": 4332,
      "lities": 4333,
      "047": 4334,
      "ĠSVG": 4335,
      "146": 4336,
      "156": 4337,
      "edge": 4338,
      "mobile": 4339,
      "confirm": 4340,
      "Ġregister": 4341,
      "Ġdisable": 4342,
      "++": 4343,
      "aw": 4344,
      "warning": 4345,
      "ĠCopilot": 4346,
      "ChevronDown": 4347,
      "Flo": 4348,
      "Ġ120": 4349,
      "ested": 4350,
      "Spinner": 4351,
      "\")}</": 4352,
      "ĠuseTranslations": 4353,
      "PUB": 4354,
      "expanded": 4355,
      "175": 4356,
      "application": 4357,
      "157": 4358,
      "002": 4359,
      "998": 4360,
      "History": 4361,
      "236": 4362,
      "ĠNav": 4363,
      "ĠAction": 4364,
      "Ġsecondary": 4365,
      "NEXT": 4366,
      "JSON": 4367,
      "Ġframe": 4368,
      "Ġlimit": 4369,
      "Ġ86": 4370,
      "aybe": 4371,
      "ĠCollapsible": 4372,
      "ĠsideOffset": 4373,
      "Blog": 4374,
      "paint": 4375,
      "Visibility": 4376,
      "Prev": 4377,
      "Elements": 4378,
      "ServerSide": 4379,
      "Cart": 4380,
      "Ġso": 4381,
      "frontend": 4382,
      "radial": 4383,
      "Ġsafe": 4384,
      "startsWith": 4385,
      "ĠStoryObj": 4386,
      "ĠNew": 4387,
      "NAME": 4388,
      "Ġbackdrop": 4389,
      "toLocale": 4390,
      "ounted": 4391,
      "Ġdisc": 4392,
      "ĠFa": 4393,
      "404": 4394,
      "Ġimp": 4395,
      "ane": 4396,
      "Ġraw": 4397,
      "tract": 4398,
      "Ġ];": 4399,
      "ookies": 4400,
      "solid": 4401,
      "ãĢ": 4402,
      "æĸ": 4403,
      "ĠâĢĶ": 4404,
      "Live": 4405,
      "Square": 4406,
      "Ġchild": 4407,
      "RowModel": 4408,
      "Addon": 4409,
      "Ġ111": 4410,
      "185": 4411,
      "Ġsubmit": 4412,
      "If": 4413,
      "SC": 4414,
      "Max": 4415,
      "COL": 4416,
      "Days": 4417,
      "ĠCardHeader": 4418,
      "DialogOpen": 4419,
      "Choice": 4420,
      "Ġmust": 4421,
      "Warning": 4422,
      "148": 4423,
      "Ġmain": 4424,
      "tch": 4425,
      "032": 4426,
      "ĠCan": 4427,
      "timi": 4428,
      "Ġspacing": 4429,
      "ross": 4430,
      "Ġunderline": 4431,
      "Imp": 4432,
      "Ġ87": 4433,
      "summary": 4434,
      "126": 4435,
      "264": 4436,
      "Buttons": 4437,
      "Ġcenter": 4438,
      "Async": 4439,
      "ĠRadio": 4440,
      "Promise": 4441,
      "'))": 4442,
      "SubContent": 4443,
      "Pathname": 4444,
      "formance": 4445,
      "ĠclipRule": 4446,
      "Ġnoreferrer": 4447,
      "GroupItem": 4448,
      "Ġdrag": 4449,
      "utori": 4450,
      "575": 4451,
      "One": 4452,
      "Ġclick": 4453,
      "domain": 4454,
      "Href": 4455,
      "208": 4456,
      "Article": 4457,
      "catch": 4458,
      "Ġsatis": 4459,
      "AvatarFallback": 4460,
      "Ġ112": 4461,
      "232": 4462,
      "landing": 4463,
      "Setting": 4464,
      "Segment": 4465,
      "overrides": 4466,
      "Ġ`/": 4467,
      "Ġbadge": 4468,
      "184": 4469,
      "707": 4470,
      "ĠQuery": 4471,
      "pulse": 4472,
      "åħ": 4473,
      "ĠSwitch": 4474,
      "plor": 4475,
      "track": 4476,
      "loader": 4477,
      "296": 4478,
      "isitors": 4479,
      "154": 4480,
      "Ġsend": 4481,
      "Ġcommand": 4482,
      "MP": 4483,
      "ĠConfig": 4484,
      "147": 4485,
      "174": 4486,
      "MM": 4487,
      "QU": 4488,
      "Ġcontin": 4489,
      "Ġ[{": 4490,
      "ĠuseS": 4491,
      "Func": 4492,
      "curity": 4493,
      "Unit": 4494,
      "ned": 4495,
      "Routes": 4496,
      "334": 4497,
      "itor": 4498,
      "ModalOpen": 4499,
      "119": 4500,
      "folder": 4501,
      "PUBLIC": 4502,
      "087": 4503,
      "/(": 4504,
      "Ġfilters": 4505,
      "007": 4506,
      "Ġ78": 4507,
      "Doc": 4508,
      "Ġprevious": 4509,
      "Wallet": 4510,
      "Ġ84": 4511,
      "145": 4512,
      "ours": 4513,
      "Loaded": 4514,
      "gb": 4515,
      "064": 4516,
      "964": 4517,
      "nected": 4518,
      "Members": 4519,
      "cache": 4520,
      "234": 4521,
      "Canvas": 4522,
      "Ġusers": 4523,
      "uide": 4524,
      "Ġinstanceof": 4525,
      "solver": 4526,
      "NavigationMenu": 4527,
      "Ġdiff": 4528,
      "061": 4529,
      "Ġsubscription": 4530,
      "TabsTrigger": 4531,
      "idgets": 4532,
      "story": 4533,
      "Channel": 4534,
      "rigin": 4535,
      "OC": 4536,
      "olicy": 4537,
      "Wrap": 4538,
      "Ġ():": 4539,
      "erce": 4540,
      "ĠSeparator": 4541,
      "Ġfields": 4542,
      "DialogHeader": 4543,
      "992": 4544,
      "ClassNames": 4545,
      "notification": 4546,
      "ĠColumn": 4547,
      "003": 4548,
      "Ġsatisfies": 4549,
      "IT": 4550,
      "cancel": 4551,
      "cks": 4552,
      "tension": 4553,
      "pear": 4554,
      "Star": 4555,
      "ED": 4556,
      "lone": 4557,
      "spin": 4558,
      "Ġfollow": 4559,
      "Inline": 4560,
      "Design": 4561,
      "244": 4562,
      "ready": 4563,
      "ĠDashboard": 4564,
      "ledge": 4565,
      "some": 4566,
      "Ġroute": 4567,
      "available": 4568,
      "dist": 4569,
      "(!": 4570,
      "oz": 4571,
      "Invalid": 4572,
      "imer": 4573,
      "Ġplay": 4574,
      "456": 4575,
      "à¥": 4576,
      "ender": 4577,
      "328": 4578,
      "EC": 4579,
      "ĠSlot": 4580,
      "gg": 4581,
      "166": 4582,
      "cmdk": 4583,
      "pository": 4584,
      "Ġversion": 4585,
      "ĠmakeNode": 4586,
      "Ġdown": 4587,
      "tokens": 4588,
      "ĠforwardRef": 4589,
      "utions": 4590,
      "defs": 4591,
      "TER": 4592,
      "*='": 4593,
      "served": 4594,
      "Ġ106": 4595,
      "Ab": 4596,
      "Textarea": 4597,
      "\"))": 4598,
      "stall": 4599,
      "Ġquestion": 4600,
      "Controls": 4601,
      "Paragraph": 4602,
      "Validation": 4603,
      "ni": 4604,
      "Ġaspect": 4605,
      "shop": 4606,
      "isActive": 4607,
      "prose": 4608,
      "clear": 4609,
      "195": 4610,
      "129": 4611,
      "Ġimages": 4612,
      "oints": 4613,
      "ply": 4614,
      "aper": 4615,
      "}.": 4616,
      "Ġ109": 4617,
      "ugh": 4618,
      "inked": 4619,
      "ĠCopy": 4620,
      "Ġ\"\"}": 4621,
      "ĠsetIsOpen": 4622,
      "typ": 4623,
      "Fin": 4624,
      "Instance": 4625,
      "ĠSkeleton": 4626,
      "PropsType": 4627,
      "Ġoper": 4628,
      "rtual": 4629,
      "ĠmakeNodeComponent": 4630,
      "cast": 4631,
      "Ġ}`}": 4632,
      "Ġfeatures": 4633,
      "Ġ\\": 4634,
      "instance": 4635,
      "Ġamount": 4636,
      "117": 4637,
      "UP": 4638,
      "ĠAccount": 4639,
      "ascript": 4640,
      "Ġprofile": 4641,
      "ift": 4642,
      "'])]:": 4643,
      "Ġfiltered": 4644,
      "ics": 4645,
      "Ġsome": 4646,
      "TextField": 4647,
      "Scale": 4648,
      "664": 4649,
      "Ġenter": 4650,
      "Ġoverrides": 4651,
      "copilotkit": 4652,
      "ashed": 4653,
      "avascript": 4654,
      "OverridesType": 4655,
      "required": 4656,
      "Ġlength": 4657,
      "-'])]:": 4658,
      "008": 4659,
      "Ġradius": 4660,
      "repo": 4661,
      "Browser": 4662,
      "leg": 4663,
      "187": 4664,
      "ible": 4665,
      "121": 4666,
      "doc": 4667,
      "array": 4668,
      "Str": 4669,
      "currency": 4670,
      "gments": 4671,
      "Ġfinally": 4672,
      "165": 4673,
      "Ġmedia": 4674,
      "lipsis": 4675,
      "plorer": 4676,
      "Ġresolve": 4677,
      "155": 4678,
      "Brand": 4679,
      "835": 4680,
      "kip": 4681,
      "loaded": 4682,
      "Sorting": 4683,
      "è®": 4684,
      "197": 4685,
      "Manage": 4686,
      "isual": 4687,
      "orepo": 4688,
      "finite": 4689,
      "Mon": 4690,
      "Ġvariable": 4691,
      "self": 4692,
      "Fixed": 4693,
      "Branch": 4694,
      "004": 4695,
      "='#": 4696,
      "pagination": 4697,
      "120": 4698,
      "Ser": 4699,
      "note": 4700,
      "Ġpe": 4701,
      "useCallback": 4702,
      "225": 4703,
      "dynamic": 4704,
      "235": 4705,
      "Idx": 4706,
      "look": 4707,
      "chain": 4708,
      "details": 4709,
      "Native": 4710,
      "Feedback": 4711,
      "083": 4712,
      "Ġ76": 4713,
      "={`/": 4714,
      "otdev": 4715,
      "CardFooter": 4716,
      "Note": 4717,
      "ĠNodeName": 4718,
      "tegrations": 4719,
      "101": 4720,
      "imal": 4721,
      "Ġinternal": 4722,
      "override": 4723,
      "Ġparsed": 4724,
      "ĠCardTitle": 4725,
      "336": 4726,
      "OP": 4727,
      "ĠLoading": 4728,
      "Secondary": 4729,
      "assets": 4730,
      "Css": 4731,
      "098": 4732,
      "arge": 4733,
      "sup": 4734,
      "Ready": 4735,
      "Ġà¤": 4736,
      "Ġ}))": 4737,
      "Ġvia": 4738,
      "middle": 4739,
      "Navigate": 4740,
      "Ġinformation": 4741,
      "Ġaccessor": 4742,
      "Permissions": 4743,
      "127": 4744,
      "ators": 4745,
      "Site": 4746,
      "Ġrefresh": 4747,
      "ĠsetIsLoading": 4748,
      "ather": 4749,
      "207": 4750,
      "ware": 4751,
      "ĠMap": 4752,
      "304": 4753,
      "upload": 4754,
      "oday": 4755,
      "CardProps": 4756,
      "Ġexisting": 4757,
      "Ġrefetch": 4758,
      "ooth": 4759,
      "066": 4760,
      "374": 4761,
      "Ġcontrib": 4762,
      "Ġentry": 4763,
      "DialogPrimitive": 4764,
      "ĠTag": 4765,
      "uction": 4766,
      "Ġâ": 4767,
      "ĠSidebarMenu": 4768,
      "rela": 4769,
      "styled": 4770,
      "ĠuserId": 4771,
      "sx": 4772,
      "andom": 4773,
      "Ġ77": 4774,
      "}-": 4775,
      "=\"\"": 4776,
      "158": 4777,
      "views": 4778,
      "ĠDocument": 4779,
      "level": 4780,
      "153": 4781,
      "ava": 4782,
      "><": 4783,
      "ersonal": 4784,
      "Ġ\"\";": 4785,
      "hell": 4786,
      "Core": 4787,
      "Ġ500": 4788,
      "SVGElement": 4789,
      "Expand": 4790,
      "rtl": 4791,
      "wide": 4792,
      "Scheme": 4793,
      "203": 4794,
      "Pointer": 4795,
      "Ġsli": 4796,
      "Cursor": 4797,
      "ww": 4798,
      "napshot": 4799,
      "desc": 4800,
      "Asset": 4801,
      "Center": 4802,
      "ĠuseIs": 4803,
      "():": 4804,
      "Ġ89": 4805,
      "088": 4806,
      "Ġresolved": 4807,
      "clave": 4808,
      "248": 4809,
      "ĠOn": 4810,
      "relaxed": 4811,
      "mas": 4812,
      "ĠService": 4813,
      "classes": 4814,
      "Ġ83": 4815,
      "tachment": 4816,
      "Ġhandler": 4817,
      "093": 4818,
      "classnames": 4819,
      "Decor": 4820,
      "ĠEmpty": 4821,
      "Ġcurrency": 4822,
      "OD": 4823,
      "Ġpart": 4824,
      "elcome": 4825,
      "pricing": 4826,
      "Comments": 4827,
      "Changes": 4828,
      "billing": 4829,
      "344": 4830,
      "688": 4831,
      "149": 4832,
      "ived": 4833,
      "272": 4834,
      "caption": 4835,
      "035": 4836,
      "reshold": 4837,
      "Answer": 4838,
      "ymb": 4839,
      "pack": 4840,
      "Activity": 4841,
      "Ġ[&_[": 4842,
      "havi": 4843,
      "Ġ\"-": 4844,
      "ified": 4845,
      "qual": 4846,
      "apos": 4847,
      "Ġbut": 4848,
      "('');": 4849,
      "columns": 4850,
      "ĠInputGroup": 4851,
      "static": 4852,
      "Ġtx": 4853,
      "ymbol": 4854,
      "ollo": 4855,
      "Themes": 4856,
      ",.": 4857,
      "ydotdev": 4858,
      "dailydotdev": 4859,
      "ye": 4860,
      "Stop": 4861,
      "Ġwas": 4862,
      "Ġexit": 4863,
      "ĠCommandPrimitive": 4864,
      "Ġauthor": 4865,
      "></": 4866,
      "Ġ108": 4867,
      "987": 4868,
      "ĠStack": 4869,
      "primitives": 4870,
      "Ø§": 4871,
      "users": 4872,
      "Send": 4873,
      "amer": 4874,
      "Pin": 4875,
      "cture": 4876,
      "Blocks": 4877,
      "186": 4878,
      "ĠmaxWidth": 4879,
      "159": 4880,
      "VI": 4881,
      "512": 4882,
      "Ġactions": 4883,
      "ĠbuttonVariants": 4884,
      "Ġbrowser": 4885,
      "Ġdiv": 4886,
      "ĠProgress": 4887,
      "Ġ107": 4888,
      "183": 4889,
      "ĠWork": 4890,
      "Ġvalidate": 4891,
      "Audio": 4892,
      "ReactElement": 4893,
      "Ġfeature": 4894,
      "TR": 4895,
      "ĠDis": 4896,
      "ios": 4897,
      "erci": 4898,
      "Ġmodal": 4899,
      "Lay": 4900,
      "182": 4901,
      "Ġ88": 4902,
      "Ġlinks": 4903,
      "239": 4904,
      "AnimatePresence": 4905,
      "Btn": 4906,
      "tertiary": 4907,
      "signoz": 4908,
      "alt": 4909,
      "ãĥ": 4910,
      "lesson": 4911,
      "MT": 4912,
      "ä»": 4913,
      "Ġ''}": 4914,
      "ĠflexDirection": 4915,
      "Ġ82": 4916,
      "ĠAnimate": 4917,
      "SH": 4918,
      "build": 4919,
      "ĠdataKey": 4920,
      "768": 4921,
      "Reference": 4922,
      "assign": 4923,
      "Ġpublic": 4924,
      "048": 4925,
      "Ġ*:": 4926,
      "ĠPropTypes": 4927,
      "onClick": 4928,
      "orrect": 4929,
      "297": 4930,
      "WID": 4931,
      "usly": 4932,
      "SpaceOn": 4933,
      "178": 4934,
      "666": 4935,
      "ĠTypeScript": 4936,
      "Small": 4937,
      "ĠComponentProps": 4938,
      "Fill": 4939,
      "truncate": 4940,
      "Shared": 4941,
      "userSpaceOn": 4942,
      "userSpaceOnUse": 4943,
      "110": 4944,
      "toBe": 4945,
      "}\\": 4946,
      "Ġwant": 4947,
      "ganis": 4948,
      "hex": 4949,
      "ĠOpen": 4950,
      "132": 4951,
      "448": 4952,
      "AX": 4953,
      "ĠTab": 4954,
      "Ġ+=": 4955,
      "496": 4956,
      "ASE": 4957,
      "205": 4958,
      "092": 4959,
      "}-${": 4960,
      "mdx": 4961,
      "276": 4962,
      "Ġcall": 4963,
      "Ġhost": 4964,
      "163": 4965,
      "=\"-": 4966,
      "Co": 4967,
      "nova": 4968,
      "Dragging": 4969,
      "write": 4970,
      "fff": 4971,
      "cle": 4972,
      "version": 4973,
      "ĠGrid": 4974,
      "picker": 4975,
      "ĠIf": 4976,
      "controls": 4977,
      "Fetching": 4978,
      "033": 4979,
      "nail": 4980,
      "nip": 4981,
      "Ġplugin": 4982,
      "ĠSli": 4983,
      "star": 4984,
      "Ġhow": 4985,
      "Ġhere": 4986,
      "ĠLazy": 4987,
      "ĠProject": 4988,
      "455": 4989,
      "Ġgener": 4990,
      "237": 4991,
      "Hidden": 4992,
      "Que": 4993,
      "ButtonElement": 4994,
      "ĠcreateContext": 4995,
      "utom": 4996,
      "286": 4997,
      "364": 4998,
      "}`}>": 4999,
      "Ġdashboard": 5000,
      ")</": 5001,
      "resolve": 5002,
      "171": 5003,
      "Origin": 5004,
      "herit": 5005,
      "nippe": 5006,
      "analytics": 5007,
      "196": 5008,
      "wo": 5009,
      "hemas": 5010,
      "subscription": 5011,
      "umbnail": 5012,
      "hedule": 5013,
      "vit": 5014,
      "rough": 5015,
      "=\\\"": 5016,
      "press": 5017,
      "Entries": 5018,
      "063": 5019,
      "ORS": 5020,
      "ServerSideProps": 5021,
      "Rate": 5022,
      "SVGSVGElement": 5023,
      "perience": 5024,
      "je": 5025,
      "Ġrect": 5026,
      "demos": 5027,
      "know": 5028,
      "Ġ300": 5029,
      "ĠMode": 5030,
      "Simple": 5031,
      "424": 5032,
      "ĠDelete": 5033,
      "Ġdoes": 5034,
      "Ġ\"--": 5035,
      "minal": 5036,
      "173": 5037,
      "animations": 5038,
      "177": 5039,
      "åĬ": 5040,
      "Ġcomment": 5041,
      "Html": 5042,
      "Steps": 5043,
      "ĠTool": 5044,
      "drag": 5045,
      "andard": 5046,
      "monorepo": 5047,
      "Suggestions": 5048,
      "198": 5049,
      "Ġconfirm": 5050,
      "vacy": 5051,
      "large": 5052,
      "bit": 5053,
      "æĪ": 5054,
      "surface": 5055,
      "fra": 5056,
      "189": 5057,
      "Queue": 5058,
      "VE": 5059,
      "Ġmap": 5060,
      "Ġ'../../../../": 5061,
      "Msg": 5062,
      "Ġcustomer": 5063,
      "uggestion": 5064,
      "141": 5065,
      "WIDTH": 5066,
      "728": 5067,
      "Ġupload": 5068,
      "ĠProfile": 5069,
      "player": 5070,
      "ĠSheetPrimitive": 5071,
      "floor": 5072,
      "ĠAlertDialogPrimitive": 5073,
      "SvgIcon": 5074,
      "ĠonSuccess": 5075,
      "saved": 5076,
      "228": 5077,
      "Ġmark": 5078,
      "Clipboard": 5079,
      "Ġint": 5080,
      "Public": 5081,
      "javascript": 5082,
      "ĠShow": 5083,
      "Point": 5084,
      "ĠHead": 5085,
      "havior": 5086,
      "Ġpass": 5087,
      "Ġdoc": 5088,
      "997": 5089,
      "Ġerr": 5090,
      "TabsContent": 5091,
      "Ġsidebar": 5092,
      "overlay": 5093,
      "Ġagain": 5094,
      "ZE": 5095,
      "ose": 5096,
      "Ġheading": 5097,
      "ĠPattern": 5098,
      "gen": 5099,
      "isMobile": 5100,
      "eric": 5101,
      "453": 5102,
      "`);": 5103,
      "Ġfolder": 5104,
      "199": 5105,
      "Lazy": 5106,
      "Pos": 5107,
      "216": 5108,
      "Ġdir": 5109,
      "before": 5110,
      "projectcss": 5111,
      "Ġfind": 5112,
      "ique": 5113,
      "268": 5114,
      "ĠPartial": 5115,
      "...</": 5116,
      "ynt": 5117,
      "Hash": 5118,
      "stories": 5119,
      "Ġpayment": 5120,
      "Completed": 5121,
      "Dev": 5122,
      "Mounted": 5123,
      "Hovered": 5124,
      "ErrorMessage": 5125,
      "TIONS": 5126,
      "Platform": 5127,
      "Ġax": 5128,
      "Responsive": 5129,
      "isode": 5130,
      "131": 5131,
      "'>{": 5132,
      "apter": 5133,
      "275": 5134,
      "send": 5135,
      "528": 5136,
      "amera": 5137,
      "IG": 5138,
      "rend": 5139,
      "pment": 5140,
      "pression": 5141,
      "Legend": 5142,
      "ĠCalendar": 5143,
      "helpers": 5144,
      "Github": 5145,
      "ĠGo": 5146,
      "ĠCap": 5147,
      "114": 5148,
      "Word": 5149,
      "Providers": 5150,
      "ube": 5151,
      "isPending": 5152,
      "086": 5153,
      "ĠsetSearch": 5154,
      "!.": 5155,
      ";\\": 5156,
      "Ġwithin": 5157,
      "266": 5158,
      "Module": 5159,
      "(${": 5160,
      "828": 5161,
      "Redirect": 5162,
      "rain": 5163,
      "Ġ92": 5164,
      "Draft": 5165,
      "pop": 5166,
      "ItemProps": 5167,
      "194": 5168,
      "Ġexec": 5169,
      "084": 5170,
      "Exec": 5171,
      "Checkout": 5172,
      "Ġxs": 5173,
      "Ġreadonly": 5174,
      "Ġrange": 5175,
      "995": 5176,
      "tree": 5177,
      "Contact": 5178,
      "Ġ113": 5179,
      "Collapsed": 5180,
      "Ġentity": 5181,
      "RightIcon": 5182,
      "544": 5183,
      "Ġusername": 5184,
      "ĠnotFound": 5185,
      "Ġselection": 5186,
      "createdAt": 5187,
      "cms": 5188,
      "Tier": 5189,
      "576": 5190,
      "[],": 5191,
      "Ġclsx": 5192,
      "Ġnavigation": 5193,
      "cep": 5194,
      "nb": 5195,
      "Ð²": 5196,
      "reduce": 5197,
      "ĠSVGProps": 5198,
      "Secret": 5199,
      "ffec": 5200,
      "AB": 5201,
      "021": 5202,
      "InOut": 5203,
      "InputProps": 5204,
      "373": 5205,
      "ï¼Į": 5206,
      "Ġalert": 5207,
      "ĠLoc": 5208,
      "Capture": 5209,
      "Timestamp": 5210,
      "useRef": 5211,
      "265": 5212,
      "Ġempty": 5213,
      "Groups": 5214,
      "984": 5215,
      "share": 5216,
      "----------------": 5217,
      "179": 5218,
      "238": 5219,
      "handleSubmit": 5220,
      "ait": 5221,
      "Ġwebsite": 5222,
      "ipp": 5223,
      "ĠEmail": 5224,
      "categories": 5225,
      "Ġ128": 5226,
      "Ġchanges": 5227,
      "audio": 5228,
      "ĠonError": 5229,
      "Ġidx": 5230,
      "352": 5231,
      "Connection": 5232,
      "Nodes": 5233,
      "ĉĉĉĉ": 5234,
      "267": 5235,
      "Resize": 5236,
      "inition": 5237,
      "avaScript": 5238,
      "cx": 5239,
      "Parent": 5240,
      "Ġtask": 5241,
      "workflow": 5242,
      "recharts": 5243,
      "uting": 5244,
      "ganisation": 5245,
      "Running": 5246,
      "994": 5247,
      "ĠGitHub": 5248,
      "CommandItem": 5249,
      "895": 5250,
      "ĠFooter": 5251,
      "libr": 5252,
      "772": 5253,
      "Ġfree": 5254,
      "olume": 5255,
      "city": 5256,
      "273": 5257,
      "Ġinit": 5258,
      "VariantsArgs": 5259,
      "ArgsType": 5260,
      "idx": 5261,
      "df": 5262,
      "Ġfore": 5263,
      "-[-": 5264,
      "454": 5265,
      "ĠusePathname": 5266,
      "storybook": 5267,
      "ĠonKeyDown": 5268,
      "278": 5269,
      "Prefix": 5270,
      "ĠHTMLDivElement": 5271,
      "cipe": 5272,
      "slider": 5273,
      "calendar": 5274,
      "Ġ]);": 5275,
      "fully": 5276,
      "ategy": 5277,
      "orld": 5278,
      "acked": 5279,
      "Ġmay": 5280,
      "ually": 5281,
      "ĠWith": 5282,
      "ĠSection": 5283,
      "ĠLoader": 5284,
      "ving": 5285,
      "Ġrx": 5286,
      "åĲ": 5287,
      "ĠPlease": 5288,
      "(([": 5289,
      "704": 5290,
      "ĠReserved": 5291,
      "mantine": 5292,
      "çĶ": 5293,
      "rena": 5294,
      "253": 5295,
      "Outside": 5296,
      "384": 5297,
      "enabled": 5298,
      "193": 5299,
      "848": 5300,
      "ude": 5301,
      "204": 5302,
      "pected": 5303,
      "ĠSingle": 5304,
      "Ġ((": 5305,
      "portunity": 5306,
      "Ġcre": 5307,
      "easeInOut": 5308,
      "Ġdemo": 5309,
      "Products": 5310,
      "ariance": 5311,
      "Owner": 5312,
      "Formatter": 5313,
      "routes": 5314,
      "ĠstopOpacity": 5315,
      "Ġ255": 5316,
      "Ġwhere": 5317,
      "ĠPick": 5318,
      "368": 5319,
      "cial": 5320,
      "578": 5321,
      "Ġren": 5322,
      "201": 5323,
      "live": 5324,
      "206": 5325,
      "ird": 5326,
      "Ġanchor": 5327,
      "Mj": 5328,
      "277": 5329,
      "year": 5330,
      "refresh": 5331,
      "ĠNodeNameType": 5332,
      "ĠReservedPropsType": 5333,
      "arrow": 5334,
      "Ġimg": 5335,
      "Reason": 5336,
      "MouseEvent": 5337,
      "Queries": 5338,
      "EW": 5339,
      "967": 5340,
      "034": 5341,
      "uffer": 5342,
      "376": 5343,
      "isitor": 5344,
      "plain": 5345,
      "undle": 5346,
      "Ġstatic": 5347,
      "Analytics": 5348,
      "096": 5349,
      "ĠDialogContent": 5350,
      "';\\": 5351,
      "CheckIcon": 5352,
      "imi": 5353,
      "Ġconnection": 5354,
      "475": 5355,
      "romo": 5356,
      "oms": 5357,
      "Dimen": 5358,
      "lang": 5359,
      "NextPage": 5360,
      "ĠTr": 5361,
      "tle": 5362,
      "Ġruntime": 5363,
      "dge": 5364,
      "Conversation": 5365,
      ")[": 5366,
      "075": 5367,
      "298": 5368,
      "243": 5369,
      "ĠhandleSubmit": 5370,
      "Ġinto": 5371,
      "aracter": 5372,
      "highlight": 5373,
      "LL": 5374,
      "ĠPreview": 5375,
      "ĠstudioCtx": 5376,
      "Ġdetails": 5377,
      "Ġ81": 5378,
      "Paths": 5379,
      "Ġnav": 5380,
      "Ġinfo": 5381,
      "zod": 5382,
      "utorial": 5383,
      "freeBox": 5384,
      "ĠHover": 5385,
      "Ġvertical": 5386,
      "PropsWithChildren": 5387,
      "customer": 5388,
      "breadcrumb": 5389,
      "ĠChange": 5390,
      "mask": 5391,
      "Org": 5392,
      "contact": 5393,
      "279": 5394,
      "await": 5395,
      "ĠRead": 5396,
      "ĠOption": 5397,
      "air": 5398,
      "UTE": 5399,
      "ĠonToggle": 5400,
      "Ġensure": 5401,
      "mouse": 5402,
      "332": 5403,
      "Ġworkflow": 5404,
      "pink": 5405,
      ".__": 5406,
      "phone": 5407,
      "Ġoutput": 5408,
      "ItemIndicator": 5409,
      "Ġval": 5410,
      "209": 5411,
      "ĠCardDescription": 5412,
      "resize": 5413,
      "888": 5414,
      "ieve": 5415,
      "Ġdefine": 5416,
      "bricks": 5417,
      "vw": 5418,
      "406": 5419,
      "Cal": 5420,
      "Term": 5421,
      "Ġwrap": 5422,
      "pearance": 5423,
      "246": 5424,
      "letter": 5425,
      "PopoverContent": 5426,
      ".$": 5427,
      "otp": 5428,
      "ĠBoolean": 5429,
      "ĠLogo": 5430,
      "014": 5431,
      "736": 5432,
      "ĠPer": 5433,
      "vote": 5434,
      "Img": 5435,
      "variance": 5436,
      "222": 5437,
      "ĠPropsWithChildren": 5438,
      "ffective": 5439,
      "Ġdirect": 5440,
      "Ġapplication": 5441,
      "typography": 5442,
      "028": 5443,
      "744": 5444,
      "ĠborderColor": 5445,
      "ET": 5446,
      "ipe": 5447,
      "tice": 5448,
      "Ġwrapper": 5449,
      "Ġwhich": 5450,
      "708": 5451,
      "Ġ105": 5452,
      "TYP": 5453,
      "Ġindicator": 5454,
      "ĠisSelected": 5455,
      "Ġspan": 5456,
      "Period": 5457,
      "bounced": 5458,
      "violet": 5459,
      "Ġser": 5460,
      "Ġ79": 5461,
      "Ġyear": 5462,
      "Ġsystem": 5463,
      "Billing": 5464,
      "searchParams": 5465,
      "uy": 5466,
      "Export": 5467,
      "PRO": 5468,
      "points": 5469,
      "esome": 5470,
      "authority": 5471,
      "Ð»": 5472,
      "Ġlogin": 5473,
      "restProps": 5474,
      "izer": 5475,
      "378": 5476,
      "ucket": 5477,
      "anger": 5478,
      "Ġwithout": 5479,
      "dd": 5480,
      "Ġclasses": 5481,
      "prise": 5482,
      "Ld": 5483,
      "Phone": 5484,
      "gable": 5485,
      "Mat": 5486,
      "ĠFor": 5487,
      "ĠInter": 5488,
      "645": 5489,
      "Autocomplete": 5490,
      "ield": 5491,
      "Desktop": 5492,
      "orgs": 5493,
      "ĠBlog": 5494,
      "037": 5495,
      "ĠIt": 5496,
      ",-": 5497,
      "162": 5498,
      "Layer": 5499,
      "Network": 5500,
      "Available": 5501,
      "\"}>": 5502,
      "ĠYour": 5503,
      "Qui": 5504,
      "097": 5505,
      "385": 5506,
      "Ġ{\"": 5507,
      "avigator": 5508,
      "Ġprose": 5509,
      "ping": 5510,
      "ĠDocs": 5511,
      "ĠdisplayName": 5512,
      "Ġinterval": 5513,
      "646": 5514,
      "161": 5515,
      "042": 5516,
      "velopment": 5517,
      "SIZE": 5518,
      "Zone": 5519,
      "294": 5520,
      "Ratio": 5521,
      "scape": 5522,
      "292": 5523,
      "151": 5524,
      "Invite": 5525,
      "Ġshare": 5526,
      "896": 5527,
      "ĠClient": 5528,
      "242": 5529,
      "Ġì": 5530,
      "odos": 5531,
      "ffff": 5532,
      "502": 5533,
      "Upgrade": 5534,
      "Trash": 5535,
      "Ġu": 5536,
      "[]);": 5537,
      "202": 5538,
      "limit": 5539,
      "ĠStep": 5540,
      "Slide": 5541,
      "services": 5542,
      "'}>": 5543,
      "254": 5544,
      "avor": 5545,
      "996": 5546,
      "504": 5547,
      "buttons": 5548,
      "widgets": 5549,
      "atalog": 5550,
      "çļ": 5551,
      "Ġ\"#\",": 5552,
      "soft": 5553,
      "Ġfunc": 5554,
      "iler": 5555,
      "={!!": 5556,
      "QL": 5557,
      "Ġfooter": 5558,
      "country": 5559,
      "*.": 5560,
      "944": 5561,
      "temp": 5562,
      "ways": 5563,
      "Ġ}],": 5564,
      "Ġsame": 5565,
      "348": 5566,
      "ä½": 5567,
      "viewport": 5568,
      "ips": 5569,
      "çļĦ": 5570,
      "][": 5571,
      "trpc": 5572,
      "entifier": 5573,
      "312": 5574,
      "stant": 5575,
      "(`/": 5576,
      "608": 5577,
      "toc": 5578,
      "Output": 5579,
      "Ai": 5580,
      "Ġstack": 5581,
      "Ġnavigate": 5582,
      "Device": 5583,
      "Observer": 5584,
      "atured": 5585,
      "Ġpagination": 5586,
      "Ġposts": 5587,
      "ĠTeam": 5588,
      "ãĤ": 5589,
      "055": 5590,
      "Ġ124": 5591,
      "pad": 5592,
      "ĠEditor": 5593,
      "icky": 5594,
      "NS": 5595,
      "Refine": 5596,
      "181": 5597,
      "Ġoriginal": 5598,
      "ĠBar": 5599,
      "?\",": 5600,
      "Ġcapture": 5601,
      "uilt": 5602,
      "013": 5603,
      "formData": 5604,
      "Ġ130": 5605,
      "Sup": 5606,
      "ElementType": 5607,
      "058": 5608,
      "ĠtextAlign": 5609,
      "alk": 5610,
      "Ġdesign": 5611,
      "Ġo": 5612,
      "ĠVariants": 5613,
      "AA": 5614,
      "226": 5615,
      "335": 5616,
      "Transform": 5617,
      "Animated": 5618,
      "Social": 5619,
      "Ġword": 5620,
      "output": 5621,
      "477": 5622,
      "365": 5623,
      "258": 5624,
      "Ġalso": 5625,
      "Ġbeen": 5626,
      "zed": 5627,
      "mory": 5628,
      "ĠBlock": 5629,
      "dash": 5630,
      "detail": 5631,
      "ĠdefaultVariants": 5632,
      "rip": 5633,
      "252": 5634,
      "ĠonPress": 5635,
      "Metrics": 5636,
      "wh": 5637,
      "Ġbook": 5638,
      "Hook": 5639,
      "palette": 5640,
      "Report": 5641,
      "allery": 5642,
      "065": 5643,
      "ContextValue": 5644,
      "ssed": 5645,
      "Hide": 5646,
      "Ġ150": 5647,
      "ĠServer": 5648,
      "338": 5649,
      "}\"": 5650,
      "Ġ103": 5651,
      "Ġanswer": 5652,
      "Dot": 5653,
      "337": 5654,
      "Tsx": 5655,
      "StaticProps": 5656,
      "Timer": 5657,
      "contain": 5658,
      "ĠformData": 5659,
      "subtitle": 5660,
      "onts": 5661,
      "stats": 5662,
      "Ġ400": 5663,
      "219": 5664,
      "leting": 5665,
      "ordered": 5666,
      "274": 5667,
      "sim": 5668,
      "channel": 5669,
      "078": 5670,
      "workspaceId": 5671,
      "Zoom": 5672,
      "Ġsteps": 5673,
      "nippet": 5674,
      "payment": 5675,
      "Ġpending": 5676,
      "343": 5677,
      "Ġcontinue": 5678,
      "648": 5679,
      "DialogDescription": 5680,
      "showtime": 5681,
      "mag": 5682,
      "295": 5683,
      "Translation": 5684,
      "'];": 5685,
      "è´": 5686,
      "VariantProps": 5687,
      "Cta": 5688,
      "Environment": 5689,
      "Ġ116": 5690,
      "scrib": 5691,
      "245": 5692,
      "Country": 5693,
      "Notifications": 5694,
      "438": 5695,
      "onClose": 5696,
      "FormData": 5697,
      "ipping": 5698,
      "optional": 5699,
      "CSSProperties": 5700,
      "sted": 5701,
      "247": 5702,
      "Authenticated": 5703,
      "017": 5704,
      "416": 5705,
      "turnType": 5706,
      "Ġapply": 5707,
      "way": 5708,
      "lue": 5709,
      "spring": 5710,
      "}`);": 5711,
      "ĠonDelete": 5712,
      "231": 5713,
      "392": 5714,
      "ĠDialogTitle": 5715,
      "nodeName": 5716,
      "ĠExample": 5717,
      "ĠaccessorKey": 5718,
      "toFixed": 5719,
      "wider": 5720,
      "976": 5721,
      "Ġprefix": 5722,
      "Ġrules": 5723,
      "uffix": 5724,
      ">[": 5725,
      "ference": 5726,
      "792": 5727,
      "utilities": 5728,
      "SP": 5729,
      "sans": 5730,
      "selection": 5731,
      "HTMLButtonElement": 5732,
      "VER": 5733,
      "ĠfontFamily": 5734,
      "combobox": 5735,
      "283": 5736,
      "gr": 5737,
      "ĠUpdate": 5738,
      "ĠonCancel": 5739,
      "filtered": 5740,
      "Ġslot": 5741,
      "Lines": 5742,
      ">{\"": 5743,
      "Process": 5744,
      "Ġthese": 5745,
      "leading": 5746,
      "ĠDropdownMenuContent": 5747,
      "gedIn": 5748,
      "tachments": 5749,
      "exec": 5750,
      "257": 5751,
      "ĠDropdownMenuTrigger": 5752,
      "ĠuseAppSelector": 5753,
      "ĠSvg": 5754,
      "Ġprojects": 5755,
      "ĠgradientUnits": 5756,
      ".${": 5757,
      "ĠEvent": 5758,
      "Ġ\"$": 5759,
      "ĠhandleClick": 5760,
      "ĠLogin": 5761,
      "ming": 5762,
      "andpack": 5763,
      "').": 5764,
      "Contents": 5765,
      "ProviderProps": 5766,
      "resolved": 5767,
      "Ġlight": 5768,
      "generated": 5769,
      "lev": 5770,
      "488": 5771,
      "Ne": 5772,
      "draft": 5773,
      "call": 5774,
      "upon": 5775,
      "avorite": 5776,
      "ollar": 5777,
      "Ġplatform": 5778,
      "094": 5779,
      ")?.": 5780,
      "plugin": 5781,
      "twitter": 5782,
      "Customer": 5783,
      "SET": 5784,
      "REE": 5785,
      "clamp": 5786,
      "Ġvalidation": 5787,
      "å®": 5788,
      "google": 5789,
      "ĠlocalStorage": 5790,
      "249": 5791,
      "074": 5792,
      "010": 5793,
      "ĠTextarea": 5794,
      "Ġits": 5795,
      "Ġnum": 5796,
      "498": 5797,
      "ates": 5798,
      "commerce": 5799,
      "urveys": 5800,
      "076": 5801,
      "updated": 5802,
      "onical": 5803,
      "Ġmat": 5804,
      "ĠScrollArea": 5805,
      "ĠPlus": 5806,
      "letion": 5807,
      "intern": 5808,
      "856": 5809,
      ":',": 5810,
      "389": 5811,
      "tifact": 5812,
      "CT": 5813,
      "seo": 5814,
      "maining": 5815,
      "}%": 5816,
      "Images": 5817,
      "Viewer": 5818,
      "npm": 5819,
      "((_,": 5820,
      "rty": 5821,
      "Collapse": 5822,
      "single": 5823,
      "metric": 5824,
      "Ġmerge": 5825,
      "Ġprivate": 5826,
      "776": 5827,
      "Ġtypes": 5828,
      "util": 5829,
      "DER": 5830,
      "Focused": 5831,
      "ĠSafe": 5832,
      "rending": 5833,
      "023": 5834,
      "stream": 5835,
      "InView": 5836,
      "Metric": 5837,
      "675": 5838,
      "framework": 5839,
      "`}>": 5840,
      "game": 5841,
      "Ġwidget": 5842,
      "Ġsee": 5843,
      "ĠinputRef": 5844,
      "\",\"": 5845,
      "ĠRouter": 5846,
      ">\\": 5847,
      "457": 5848,
      "iti": 5849,
      "stination": 5850,
      "ĠMouse": 5851,
      "\"];": 5852,
      "Const": 5853,
      "993": 5854,
      "headers": 5855,
      "464": 5856,
      "hereum": 5857,
      "dashed": 5858,
      "labor": 5859,
      "191": 5860,
      "Ġ102": 5861,
      "ets": 5862,
      "053": 5863,
      "PageProps": 5864,
      "entication": 5865,
      "262": 5866,
      "054": 5867,
      "ula": 5868,
      "Internal": 5869,
      "interval": 5870,
      "Ġplacement": 5871,
      ":\",": 5872,
      "285": 5873,
      "Ġarg": 5874,
      "073": 5875,
      "Confirmation": 5876,
      "Ġ'-": 5877,
      "039": 5878,
      "586": 5879,
      "ĠMe": 5880,
      "038": 5881,
      "Num": 5882,
      "ÙĦ": 5883,
      "Trace": 5884,
      "=\"$": 5885,
      "Ġtransaction": 5886,
      "ĠreadOnly": 5887,
      "ison": 5888,
      "Ġmultiple": 5889,
      "(`${": 5890,
      "Tile": 5891,
      "unit": 5892,
      "Review": 5893,
      "sonner": 5894,
      "struction": 5895,
      "Story": 5896,
      "riend": 5897,
      "462": 5898,
      "DarkMode": 5899,
      "redirect": 5900,
      "periment": 5901,
      "696": 5902,
      "device": 5903,
      "Ġmutate": 5904,
      "Ġhighlight": 5905,
      "ĠHTMLElement": 5906,
      "balance": 5907,
      "435": 5908,
      "kbd": 5909,
      "lags": 5910,
      "Verification": 5911,
      "432": 5912,
      "Single": 5913,
      "ara": 5914,
      "ĠMy": 5915,
      "ErrorBoundary": 5916,
      "Ġcontrols": 5917,
      "227": 5918,
      "alic": 5919,
      "InputGroupAddon": 5920,
      "gh": 5921,
      "âĢ¢": 5922,
      "495": 5923,
      "Ġ104": 5924,
      "previous": 5925,
      "027": 5926,
      "Ge": 5927,
      "ĠSuspense": 5928,
      "387": 5929,
      "Ġresults": 5930,
      "ural": 5931,
      "rix": 5932,
      "setState": 5933,
      "Descendants": 5934,
      "nums": 5935,
      "466": 5936,
      "ĠTitle": 5937,
      "pk": 5938,
      "Tpl": 5939,
      "person": 5940,
      "Ġter": 5941,
      "done": 5942,
      "lta": 5943,
      "Ġ140": 5944,
      "ĠWh": 5945,
      "ins": 5946,
      "sic": 5947,
      "DatePicker": 5948,
      "Ġadmin": 5949,
      "Ġrequire": 5950,
      "Ġpeer": 5951,
      "ĠContextMenuPrimitive": 5952,
      "ĠContainer": 5953,
      "attributes": 5954,
      "Ġproducts": 5955,
      "Hint": 5956,
      "ssr": 5957,
      "Embed": 5958,
      "vicon": 5959,
      "ĠStri": 5960,
      "variable": 5961,
      "221": 5962,
      "nbsp": 5963,
      "Ġcur": 5964,
      "oper": 5965,
      "Eng": 5966,
      "Ġtrpc": 5967,
      "oser": 5968,
      "169": 5969,
      "ColorMode": 5970,
      "Ġ96": 5971,
      "ĠDemo": 5972,
      "Ġmon": 5973,
      "Helper": 5974,
      "uring": 5975,
      "ArgProps": 5976,
      "Reduce": 5977,
      "ĠAs": 5978,
      "568": 5979,
      "completed": 5980,
      "\").": 5981,
      "db": 5982,
      "trics": 5983,
      "018": 5984,
      "ock": 5985,
      "Ġnon": 5986,
      "Touch": 5987,
      "ĠDropdownMenuItem": 5988,
      "ĠChevronDown": 5989,
      "Ġevery": 5990,
      "history": 5991,
      "Logs": 5992,
      "Mz": 5993,
      "469": 5994,
      "validation": 5995,
      "408": 5996,
      "steps": 5997,
      "ĠAll": 5998,
      "ĠSlider": 5999,
      "KeyboardEvent": 6000,
      "Ġ'';": 6001,
      "raf": 6002,
      "dk": 6003,
      "cta": 6004,
      "ercise": 6005,
      "ItemId": 6006,
      "Upper": 6007,
      "395": 6008,
      "Ġthem": 6009,
      "reverse": 6010,
      "ĠSort": 6011,
      "548": 6012,
      "Factor": 6013,
      "ĠuseUser": 6014,
      "parsed": 6015,
      "carousel": 6016,
      "259": 6017,
      "Ġforeground": 6018,
      "Direct": 6019,
      "Ġcreated": 6020,
      "672": 6021,
      "Build": 6022,
      "Raw": 6023,
      "struct": 6024,
      "BAR": 6025,
      "ĠuseConfig": 6026,
      "Nj": 6027,
      "Ġlabels": 6028,
      "quick": 6029,
      "Ð½Ð¸": 6030,
      "ĠonDrag": 6031,
      "ĠmarginTop": 6032,
      "Break": 6033,
      "043": 6034,
      "Ġsubtitle": 6035,
      "ga": 6036,
      "Ġextra": 6037,
      "ĠHeading": 6038,
      "071": 6039,
      "anchor": 6040,
      "Translations": 6041,
      "survey": 6042,
      "force": 6043,
      "345": 6044,
      "issues": 6045,
      "339": 6046,
      "til": 6047,
      "Resolver": 6048,
      "068": 6049,
      "Playing": 6050,
      "unks": 6051,
      "marke": 6052,
      "045": 6053,
      "367": 6054,
      "dits": 6055,
      "ContextMenuPrimitive": 6056,
      "ĠonUpdate": 6057,
      "Username": 6058,
      "fd": 6059,
      "Chip": 6060,
      "formbricks": 6061,
      "SelectValue": 6062,
      "DataGrid": 6063,
      "968": 6064,
      "215": 6065,
      "ĠqueryClient": 6066,
      "scriptor": 6067,
      "peer": 6068,
      "Ġchain": 6069,
      "toLocaleString": 6070,
      "TsxCode": 6071,
      "308": 6072,
      "git": 6073,
      "Ġ`<": 6074,
      "When": 6075,
      "char": 6076,
      "ArrowUp": 6077,
      "invoice": 6078,
      "oss": 6079,
      "379": 6080,
      "321": 6081,
      "cc": 6082,
      "Cloud": 6083,
      "social": 6084,
      "redentials": 6085,
      "Ġmove": 6086,
      "Ġinclude": 6087,
      "DataTable": 6088,
      "ttp": 6089,
      "Your": 6090,
      "Ġdomain": 6091,
      "Invoice": 6092,
      "261": 6093,
      "aking": 6094,
      "9999": 6095,
      "ĠToastPrimitives": 6096,
      "Arch": 6097,
      "jo": 6098,
      "Ġpattern": 6099,
      "ATA": 6100,
      "ĠpageSize": 6101,
      "Ġnormalized": 6102,
      "IM": 6103,
      "Ġrepeat": 6104,
      "prompt": 6105,
      "Ġparts": 6106,
      "watch": 6107,
      "ubble": 6108,
      "Ġpages": 6109,
      "arison": 6110,
      "Ġreact": 6111,
      "975": 6112,
      "467": 6113,
      "oding": 6114,
      "CircleIcon": 6115,
      "aid": 6116,
      "Edge": 6117,
      "ste": 6118,
      "ored": 6119,
      "Ġknow": 6120,
      "Ġsegment": 6121,
      "TextArea": 6122,
      "ĠRoute": 6123,
      "476": 6124,
      "ability": 6125,
      "Ġfixed": 6126,
      "Ġexport": 6127,
      "Ġsizes": 6128,
      "ucide": 6129,
      "Categories": 6130,
      "Follow": 6131,
      "tbody": 6132,
      "stal": 6133,
      "Ġpurchase": 6134,
      "uplic": 6135,
      "ReadOnly": 6136,
      "ĠCancel": 6137,
      "Ġplasmic": 6138,
      "PP": 6139,
      "Ġcountry": 6140,
      "yntax": 6141,
      "019": 6142,
      "inherit": 6143,
      "ĠComm": 6144,
      "angero": 6145,
      "ĠStatus": 6146,
      "Ġblur": 6147,
      "Ġhelp": 6148,
      "package": 6149,
      "Ġ93": 6150,
      "SignIn": 6151,
      "collective": 6152,
      "Ġsync": 6153,
      "ĠlineHeight": 6154,
      "Ġcallback": 6155,
      "778": 6156,
      "ĠuseMutation": 6157,
      "Overview": 6158,
      "213": 6159,
      "ctionary": 6160,
      "userId": 6161,
      "sRef": 6162,
      "353": 6163,
      "391": 6164,
      "Variable": 6165,
      "465": 6166,
      "Transfer": 6167,
      "UM": 6168,
      "vie": 6169,
      "teal": 6170,
      "isSubmitting": 6171,
      "dis": 6172,
      "Ġtabs": 6173,
      "PopoverTrigger": 6174,
      "ĠTabsPrimitive": 6175,
      "ãĢĤ": 6176,
      "ScrollUp": 6177,
      "Free": 6178,
      "Ġjson": 6179,
      "ĠRender": 6180,
      "838": 6181,
      "ef": 6182,
      "xen": 6183,
      "short": 6184,
      "Fr": 6185,
      "rich": 6186,
      "opt": 6187,
      "355": 6188,
      "594": 6189,
      "HoverCard": 6190,
      "269": 6191,
      "291": 6192,
      "After": 6193,
      "rive": 6194,
      "ScrollDown": 6195,
      "links": 6196,
      "Ġmetric": 6197,
      "ArrowLeft": 6198,
      "break": 6199,
      "padding": 6200,
      "orph": 6201,
      "797": 6202,
      "markdown": 6203,
      "ISO": 6204,
      "GitHub": 6205,
      "enable": 6206,
      "ĠSelectItem": 6207,
      "scss": 6208,
      "Repo": 6209,
      "library": 6210,
      "ĠJavaScript": 6211,
      "Ġcontribut": 6212,
      "Ġ/>}>": 6213,
      "ĠDialogHeader": 6214,
      "DialogFooter": 6215,
      "currentTarget": 6216,
      "Ġbar": 6217,
      "Contribut": 6218,
      "ĠisDisabled": 6219,
      "))',": 6220,
      "584": 6221,
      "988": 6222,
      "Ġresize": 6223,
      "263": 6224,
      "ĠID": 6225,
      "\")}>": 6226,
      "Ġacc": 6227,
      "Application": 6228,
      "uble": 6229,
      "Ġ94": 6230,
      "362": 6231,
      "592": 6232,
      "*.{": 6233,
      "676": 6234,
      "pol": 6235,
      "ticip": 6236,
      "ixel": 6237,
      "Ġ114": 6238,
      "Padding": 6239,
      "508": 6240,
      "CloseButton": 6241,
      "Methods": 6242,
      "SidebarGroup": 6243,
      "internal": 6244,
      "Ġ}>;": 6245,
      "ChoiceArg": 6246,
      "318": 6247,
      "uped": 6248,
      "Ġ180": 6249,
      "angerously": 6250,
      "created": 6251,
      "Fee": 6252,
      "ĠAdmin": 6253,
      "ĠFolder": 6254,
      "Place": 6255,
      "ditions": 6256,
      "Remote": 6257,
      "Ġmutation": 6258,
      "Tools": 6259,
      "Cards": 6260,
      "Ġaudio": 6261,
      "251": 6262,
      "++)": 6263,
      "Please": 6264,
      "mutate": 6265,
      "Ġcla": 6266,
      "Caption": 6267,
      "ĠNotification": 6268,
      "313": 6269,
      "Ġweek": 6270,
      "storage": 6271,
      "Ġdialog": 6272,
      "Ġtransparent": 6273,
      "655": 6274,
      "Features": 6275,
      "ĠName": 6276,
      "Ġusage": 6277,
      "095": 6278,
      "393": 6279,
      "italize": 6280,
      "ĠuseAuth": 6281,
      "ĠTooltipContent": 6282,
      "hexclave": 6283,
      "ĠProvider": 6284,
      "lator": 6285,
      "vitation": 6286,
      "396": 6287,
      "()}>": 6288,
      "Ext": 6289,
      "the": 6290,
      "ĠAi": 6291,
      "UpperCase": 6292,
      "publish": 6293,
      "ĠuseToast": 6294,
      "Ġ95": 6295,
      "HStack": 6296,
      "Scope": 6297,
      "363": 6298,
      "activity": 6299,
      "Equal": 6300,
      "Ġeach": 6301,
      "('')": 6302,
      "sheetId": 6303,
      "Ġdev": 6304,
      "Tech": 6305,
      "unknown": 6306,
      "Ġ})),": 6307,
      "prove": 6308,
      "ĠPlasmicDescendants": 6309,
      "011": 6310,
      "CheckedChange": 6311,
      "FOR": 6312,
      "illa": 6313,
      "ĠSelectTrigger": 6314,
      "218": 6315,
      "478": 6316,
      "erent": 6317,
      "Â·": 6318,
      "468": 6319,
      "347": 6320,
      "Ġ115": 6321,
      "aste": 6322,
      "Ġweight": 6323,
      "212": 6324,
      "collapsed": 6325,
      "campaign": 6326,
      "tected": 6327,
      "timestamp": 6328,
      "ĠDataTable": 6329,
      "Ġleave": 6330,
      "FormMessage": 6331,
      "Ġtheir": 6332,
      "Enum": 6333,
      "678": 6334,
      "lout": 6335,
      "494": 6336,
      "ĠsetState": 6337,
      "ĠsetTheme": 6338,
      "085": 6339,
      "985": 6340,
      "ĠclearTimeout": 6341,
      "themes": 6342,
      "ĠReg": 6343,
      "Ġanimations": 6344,
      "Streaming": 6345,
      "}/${": 6346,
      "ĠsetInput": 6347,
      "354": 6348,
      ")),": 6349,
      "aries": 6350,
      "indicator": 6351,
      "Ġ'â": 6352,
      "ater": 6353,
      "FormValues": 6354,
      "ĠOut": 6355,
      "ĠtabIndex": 6356,
      "çĶ¨": 6357,
      "gre": 6358,
      "spinner": 6359,
      "angerouslySet": 6360,
      "Short": 6361,
      "Basic": 6362,
      "Gap": 6363,
      "Saving": 6364,
      "browser": 6365,
      "ĠuseGet": 6366,
      "241": 6367,
      "InnerHTML": 6368,
      "Ġtimestamp": 6369,
      "bind": 6370,
      "wap": 6371,
      "66667": 6372,
      "clipboard": 6373,
      "äº": 6374,
      "Ġ).": 6375,
      "315": 6376,
      "MO": 6377,
      "delay": 6378,
      "Ġpos": 6379,
      "ĠuseId": 6380,
      "358": 6381,
      "214": 6382,
      "Pane": 6383,
      "tty": 6384,
      "287": 6385,
      "ModalProps": 6386,
      "ICON": 6387,
      "AnimationFrame": 6388,
      "effect": 6389,
      "Labels": 6390,
      "665": 6391,
      "ĠSpinner": 6392,
      "dir": 6393,
      "289": 6394,
      "Expense": 6395,
      "458": 6396,
      "imp": 6397,
      "[]>([]);": 6398,
      "217": 6399,
      "Ġdrop": 6400,
      "checkout": 6401,
      "ĠTest": 6402,
      "Ġ119": 6403,
      "Ġautom": 6404,
      "weet": 6405,
      "ApiKey": 6406,
      "onSubmit": 6407,
      "mium": 6408,
      "scribed": 6409,
      "ACK": 6410,
      "Cla": 6411,
      "Ġhistory": 6412,
      "503": 6413,
      "Ġhead": 6414,
      "aret": 6415,
      "425": 6416,
      "ĠTH": 6417,
      "stripe": 6418,
      "imum": 6419,
      "069": 6420,
      "377": 6421,
      "ĠTemplate": 6422,
      "toUpperCase": 6423,
      "angerouslySetInnerHTML": 6424,
      "ĠState": 6425,
      "ssing": 6426,
      "ĠOrder": 6427,
      "Filled": 6428,
      "Mount": 6429,
      "useContext": 6430,
      "386": 6431,
      "alysis": 6432,
      "Balance": 6433,
      "ider": 6434,
      "aspect": 6435,
      "**:": 6436,
      "Ġfailed": 6437,
      "ux": 6438,
      "Ġtree": 6439,
      "ButtonGroup": 6440,
      "497": 6441,
      "307": 6442,
      "878": 6443,
      "builder": 6444,
      "978": 6445,
      ">`": 6446,
      "Publish": 6447,
      "retch": 6448,
      "ĠMan": 6449,
      "ScrollUpButton": 6450,
      "ScrollDownButton": 6451,
      "odcast": 6452,
      "FE": 6453,
      "immer": 6454,
      "ĠRow": 6455,
      "TableBody": 6456,
      "ĠApi": 6457,
      "397": 6458,
      "Counter": 6459,
      "Pricing": 6460,
      "044": 6461,
      "BarChart": 6462,
      "urable": 6463,
      "pisode": 6464,
      "FormProps": 6465,
      "[&_": 6466,
      "Ġ121": 6467,
      "Ġcontact": 6468,
      "rouped": 6469,
      "Allow": 6470,
      "BO": 6471,
      "Val": 6472,
      "VAL": 6473,
      "TS": 6474,
      "mented": 6475,
      "sum": 6476,
      "keep": 6477,
      "Ġdependencies": 6478,
      "Ġunit": 6479,
      "')}>": 6480,
      "Ġ\\'": 6481,
      "059": 6482,
      "Projects": 6483,
      "TData": 6484,
      "segment": 6485,
      "usted": 6486,
      "Ġformatted": 6487,
      "644": 6488,
      "ContentProps": 6489,
      "Author": 6490,
      "223": 6491,
      "method": 6492,
      "383": 6493,
      "089": 6494,
      "Ġkind": 6495,
      "oundary": 6496,
      "war": 6497,
      "ulk": 6498,
      "logs": 6499,
      "Ġfinal": 6500,
      "Ġreason": 6501,
      "covery": 6502,
      "Ġtabular": 6503,
      "415": 6504,
      "stable": 6505,
      "ĠBook": 6506,
      "ĠRefine": 6507,
      "ĠdangerouslySetInnerHTML": 6508,
      "Ġarray": 6509,
      "ĠmarginBottom": 6510,
      "282": 6511,
      "ĠSelectValue": 6512,
      "ĠTooltipTrigger": 6513,
      "ARD": 6514,
      "775": 6515,
      "833": 6516,
      "penses": 6517,
      "953": 6518,
      "Lesson": 6519,
      "AND": 6520,
      "536": 6521,
      "Md": 6522,
      "Ġprovi": 6523,
      "Cr": 6524,
      "dified": 6525,
      "tick": 6526,
      "Ġprompt": 6527,
      "552": 6528,
      "æĹ": 6529,
      "ĠGroup": 6530,
      "InputOTP": 6531,
      "ĠLazyComp": 6532,
      "Material": 6533,
      "Ġbo": 6534,
      "Merge": 6535,
      "surveys": 6536,
      "284": 6537,
      "replay": 6538,
      "049": 6539,
      "flat": 6540,
      "uixen": 6541,
      "ussion": 6542,
      "platform": 6543,
      "oci": 6544,
      "solution": 6545,
      "network": 6546,
      "ContextProvider": 6547,
      "ryp": 6548,
      "Common": 6549,
      "Ġ135": 6550,
      "ContextType": 6551,
      "556": 6552,
      "ĠSelectContent": 6553,
      "Ġwhat": 6554,
      "ExternalLink": 6555,
      "road": 6556,
      "SheetPrimitive": 6557,
      "\"]}": 6558,
      "-[.": 6559,
      "refer": 6560,
      "452": 6561,
      "queue": 6562,
      "342": 6563,
      "366": 6564,
      "Ġloader": 6565,
      "BreadcrumbItem": 6566,
      "271": 6567,
      "mesh": 6568,
      "setOpen": 6569,
      "160": 6570,
      "Ġ99": 6571,
      "Ġstream": 6572,
      "Todo": 6573,
      "Ġsvg": 6574,
      "Score": 6575,
      "ĠzIndex": 6576,
      "found": 6577,
      "Thumb": 6578,
      "ĠfullWidth": 6579,
      "Support": 6580,
      "Ġ256": 6581,
      "ĠonCheckedChange": 6582,
      "]'": 6583,
      "Ġcalcu": 6584,
      "303": 6585,
      "sity": 6586,
      "sky": 6587,
      "Spacing": 6588,
      "Ġsuccessfully": 6589,
      "etched": 6590,
      "472": 6591,
      "Ġten": 6592,
      "306": 6593,
      "ban": 6594,
      "Ġsummary": 6595,
      "Ġlesson": 6596,
      "ump": 6597,
      "onlook": 6598,
      "Ġdays": 6599,
      "505": 6600,
      "ales": 6601,
      "Ġforce": 6602,
      "Onboarding": 6603,
      "426": 6604,
      "hash": 6605,
      "Ðº": 6606,
      "Ġelements": 6607,
      "ĠcontainerRef": 6608,
      "quote": 6609,
      "voke": 6610,
      "Speed": 6611,
      "824": 6612,
      "riangle": 6613,
      "Stat": 6614,
      "getTime": 6615,
      "Tip": 6616,
      "tra": 6617,
      "nown": 6618,
      "oose": 6619,
      "ĠhandleKeyDown": 6620,
      "shape": 6621,
      "ĠStyled": 6622,
      "Now": 6623,
      "focused": 6624,
      "394": 6625,
      "}${": 6626,
      "Ġflo": 6627,
      "Ġ133": 6628,
      "Desc": 6629,
      "Ġunder": 6630,
      "793": 6631,
      "Game": 6632,
      "tpl": 6633,
      "Ġorg": 6634,
      "Ġplugins": 6635,
      "808": 6636,
      "Ġbrand": 6637,
      "Setup": 6638,
      "developer": 6639,
      "Ġ1024": 6640,
      "ĠFormField": 6641,
      "NC": 6642,
      "âĸ": 6643,
      "912": 6644,
      "yad": 6645,
      "diff": 6646,
      "lodash": 6647,
      "Ġdecor": 6648,
      "aderboard": 6649,
      "ĠfilePath": 6650,
      "general": 6651,
      "cart": 6652,
      "Ġ×": 6653,
      "Ġmi": 6654,
      "Seo": 6655,
      "Editable": 6656,
      "Ġq": 6657,
      "Ġ123": 6658,
      "nimport": 6659,
      "Ġlive": 6660,
      "nowledge": 6661,
      "ĠGener": 6662,
      "ĠminWidth": 6663,
      "ĠCardFooter": 6664,
      "ights": 6665,
      "ĠMouseEvent": 6666,
      "fg": 6667,
      "DEFAULT": 6668,
      "framer": 6669,
      "uses": 6670,
      "444": 6671,
      "aily": 6672,
      "%;": 6673,
      "FieldDescription": 6674,
      "Ġoverlay": 6675,
      "ĠÐ½": 6676,
      "Resources": 6677,
      "1000": 6678,
      "valu": 6679,
      "658": 6680,
      "866": 6681,
      "simple": 6682,
      "485": 6683,
      "desk": 6684,
      "382": 6685,
      "Saved": 6686,
      "Margin": 6687,
      "ĠFunction": 6688,
      "ĠuseSession": 6689,
      "timeline": 6690,
      "Virtual": 6691,
      "Opts": 6692,
      "cepted": 6693,
      ">>;": 6694,
      "bot": 6695,
      "=\"#\"": 6696,
      "ĠRadioGroup": 6697,
      "506": 6698,
      "281": 6699,
      "cipi": 6700,
      "305": 6701,
      "398": 6702,
      "activeTab": 6703,
      "250": 6704,
      "cyan": 6705,
      "Bounding": 6706,
      "cessed": 6707,
      "689": 6708,
      "Stepper": 6709,
      "369": 6710,
      "Ġbehavior": 6711,
      "âĢĻ": 6712,
      "getBy": 6713,
      "372": 6714,
      "493": 6715,
      "ThemeProvider": 6716,
      "756": 6717,
      "Ġexamples": 6718,
      "ĠOver": 6719,
      "cipient": 6720,
      "818": 6721,
      "356": 6722,
      "832": 6723,
      "Nz": 6724,
      "multi": 6725,
      "Ġrest": 6726,
      "InputRef": 6727,
      "Ð´": 6728,
      "Integration": 6729,
      "Ġroutes": 6730,
      "POST": 6731,
      "ĠMedia": 6732,
      "ToClipboard": 6733,
      "Ġkeywords": 6734,
      "Ġ98": 6735,
      "091": 6736,
      "767": 6737,
      "interfaces": 6738,
      "sa": 6739,
      "Ġviewport": 6740,
      "è¿": 6741,
      "APP": 6742,
      ")`": 6743,
      "233": 6744,
      "ince": 6745,
      "ĠdataIndex": 6746,
      "ĠMark": 6747,
      "SetState": 6748,
      "ĠAp": 6749,
      "Percent": 6750,
      "CaptureIcon": 6751,
      "Ġskip": 6752,
      "Ġtextarea": 6753,
      "Ġarticle": 6754,
      "Den": 6755,
      "ĠNot": 6756,
      "Purchase": 6757,
      "Ġnetwork": 6758,
      "feedback": 6759,
      "ieChart": 6760,
      "316": 6761,
      "417": 6762,
      "Non": 6763,
      "clerk": 6764,
      "ĠworkspaceId": 6765,
      "714": 6766,
      "Ġlook": 6767,
      "comments": 6768,
      "ĠChartConfig": 6769,
      "MIN": 6770,
      "ĠComponents": 6771,
      "Headers": 6772,
      "ĠhandleChange": 6773,
      "Models": 6774,
      "Override": 6775,
      "UTES": 6776,
      "alar": 6777,
      "rgb": 6778,
      "({});": 6779,
      "ĠInfo": 6780,
      "quen": 6781,
      "ĠFeature": 6782,
      "filled": 6783,
      "afes": 6784,
      "desktop": 6785,
      "aused": 6786,
      "Ġdon": 6787,
      "ĠsetHas": 6788,
      "recordings": 6789,
      ")]\"": 6790,
      "427": 6791,
      "752": 6792,
      "956": 6793,
      "ethereum": 6794,
      "Week": 6795,
      "ĠSave": 6796,
      "Diff": 6797,
      "ĠfillOpacity": 6798,
      "473": 6799,
      "ToggleGroup": 6800,
      "models": 6801,
      "purchase": 6802,
      "aa": 6803,
      "dium": 6804,
      "ĠautoComplete": 6805,
      "Help": 6806,
      "iff": 6807,
      "Ġbilling": 6808,
      "ĠMain": 6809,
      "apple": 6810,
      "UserId": 6811,
      "572": 6812,
      "ĠboxShadow": 6813,
      "Preferences": 6814,
      "irc": 6815,
      "484": 6816,
      "Ġstr": 6817,
      "ITE": 6818,
      "ĠuseSearchParams": 6819,
      "Ġself": 6820,
      "ĠVideo": 6821,
      "844": 6822,
      "company": 6823,
      "jected": 6824,
      "ĠiconSize": 6825,
      "editing": 6826,
      "PRE": 6827,
      "thead": 6828,
      "rown": 6829,
      "TypeScript": 6830,
      "Dots": 6831,
      "Tick": 6832,
      "Resume": 6833,
      "ony": 6834,
      "Ġaccent": 6835,
      "tw": 6836,
      "atoms": 6837,
      "Ġplayer": 6838,
      "558": 6839,
      "Ġsaved": 6840,
      "ĠuseStore": 6841,
      "'re": 6842,
      "ĠerrorMessage": 6843,
      "subscribe": 6844,
      "Ġnormalize": 6845,
      "onsor": 6846,
      "777": 6847,
      "596": 6848,
      "icture": 6849,
      "Ġ}))}": 6850,
      "banner": 6851,
      "rome": 6852,
      "Ġ{}),": 6853,
      "Ġdifferent": 6854,
      "refs": 6855,
      "ListProps": 6856,
      "faq": 6857,
      "Community": 6858,
      "499": 6859,
      "environment": 6860,
      "Ġrepo": 6861,
      "686": 6862,
      "ScrollAreaPrimitive": 6863,
      "Ġcookies": 6864,
      "Ġmask": 6865,
      "cific": 6866,
      "ĠformState": 6867,
      "Bookmark": 6868,
      "YY": 6869,
      "learn": 6870,
      "ĠCategory": 6871,
      "ĠTree": 6872,
      "private": 6873,
      "957": 6874,
      "858": 6875,
      "Ġcommon": 6876,
      "ĠDo": 6877,
      "487": 6878,
      "357": 6879,
      "ĠIN": 6880,
      "Stage": 6881,
      "3333": 6882,
      "versal": 6883,
      "Changed": 6884,
      "492": 6885,
      "repeat": 6886,
      "Enable": 6887,
      "numeric": 6888,
      "jp": 6889,
      "noreferrer": 6890,
      "ĠInt": 6891,
      "TooltipProvider": 6892,
      "Percentage": 6893,
      "Descriptor": 6894,
      "Proxy": 6895,
      ")]\">": 6896,
      "week": 6897,
      "853": 6898,
      "ociated": 6899,
      "Rating": 6900,
      "clo": 6901,
      "Ġ117": 6902,
      "758": 6903,
      "Ġpriority": 6904,
      "litz": 6905,
      "616": 6906,
      "It": 6907,
      "Ġsure": 6908,
      "igrate": 6909,
      "Ġgrow": 6910,
      "555": 6911,
      "generate": 6912,
      "ĠCircle": 6913,
      "\"));": 6914,
      "Seconds": 6915,
      "coin": 6916,
      "Navbar": 6917,
      "å¤±": 6918,
      "How": 6919,
      ")\">": 6920,
      "DataSource": 6921,
      "Dirty": 6922,
      "oney": 6923,
      "474": 6924,
      "kind": 6925,
      "ĠdefaultClassNames": 6926,
      "Face": 6927,
      "yy": 6928,
      "ĠNavigationMenuPrimitive": 6929,
      "days": 6930,
      "Ġ600": 6931,
      "825": 6932,
      "DF": 6933,
      "pin": 6934,
      "346": 6935,
      "URI": 6936,
      "]',": 6937,
      "ĠDrag": 6938,
      "just": 6939,
      "Shape": 6940,
      "989": 6941,
      "Ġzoom": 6942,
      "ĠautoFocus": 6943,
      "489": 6944,
      ">{'": 6945,
      "ART": 6946,
      "utter": 6947,
      "Alpha": 6948,
      "ĠÑģ": 6949,
      "Ġemoji": 6950,
      "ĠButtonProps": 6951,
      "selector": 6952,
      "413": 6953,
      "dt": 6954,
      "ClientRect": 6955,
      "ENTS": 6956,
      "816": 6957,
      "Ġevents": 6958,
      "Many": 6959,
      "/_": 6960,
      "562": 6961,
      "029": 6962,
      "ĠMaybe": 6963,
      "Ġdownload": 6964,
      "olog": 6965,
      "Dismiss": 6966,
      "ĠShare": 6967,
      "Ġdropdown": 6968,
      "shortcut": 6969,
      "community": 6970,
      "`)": 6971,
      "ered": 6972,
      "ĠonBlur": 6973,
      "JsonLd": 6974,
      "ç»": 6975,
      "Ġë": 6976,
      "Refs": 6977,
      "stead": 6978,
      "Ġdraft": 6979,
      "323": 6980,
      "Filtered": 6981,
      "ĠRi": 6982,
      "571": 6983,
      "ĠDialogDescription": 6984,
      "ĠgenerateMetadata": 6985,
      "Ġdesc": 6986,
      "Skill": 6987,
      "Ġshape": 6988,
      "405": 6989,
      "933": 6990,
      "éĢ": 6991,
      "Ġthey": 6992,
      "Ni": 6993,
      "Random": 6994,
      "yping": 6995,
      "Dir": 6996,
      "ChevronRight": 6997,
      "Landing": 6998,
      "OW": 6999,
      "linko": 7000,
      "ĠComment": 7001,
      "skillrecordings": 7002,
      "è´¥": 7003,
      "å¤±è´¥": 7004,
      "Sel": 7005,
      "Ġder": 7006,
      "Ġok": 7007,
      "Dec": 7008,
      "mock": 7009,
      "010507": 7010,
      "init": 7011,
      "952": 7012,
      "todo": 7013,
      "ĠĠĠĠĠĠĠĠĠ": 7014,
      "ĠCopilotChat": 7015,
      "%'": 7016,
      "Var": 7017,
      "Thread": 7018,
      "Ġ125": 7019,
      "ĠsetRe": 7020,
      "rant": 7021,
      "questions": 7022,
      "624": 7023,
      "Snapshot": 7024,
      "ĠonRemove": 7025,
      "ĠArg": 7026,
      "crement": 7027,
      "Assistant": 7028,
      "getValue": 7029,
      "Ġ101": 7030,
      "50049": 7031,
      "Ġenv": 7032,
      "Ġtemp": 7033,
      "ĠMenubarPrimitive": 7034,
      "938": 7035,
      "ruixen": 7036,
      "Ġexternal": 7037,
      "omes": 7038,
      "property": 7039,
      "Hyd": 7040,
      "Ð¼": 7041,
      "Ġvisitors": 7042,
      "download": 7043,
      "Accounts": 7044,
      "outlined": 7045,
      "vaul": 7046,
      "545": 7047,
      "tier": 7048,
      "æĸĩ": 7049,
      "229": 7050,
      "Ġbtn": 7051,
      "447": 7052,
      "904": 7053,
      "314": 7054,
      "ĠPassword": 7055,
      "uplicate": 7056,
      "gl": 7057,
      "hq": 7058,
      "ĠHero": 7059,
      "ĠUpload": 7060,
      "ali": 7061,
      "IconSize": 7062,
      "ĠnodeName": 7063,
      "Strict": 7064,
      "Ġconnect": 7065,
      "563": 7066,
      "TypographyType": 7067,
      "16716": 7068,
      "uman": 7069,
      "getElement": 7070,
      "stores": 7071,
      "Dist": 7072,
      "ĠAvatarPrimitive": 7073,
      "419": 7074,
      "quot": 7075,
      "403": 7076,
      "Ġinvoice": 7077,
      "325": 7078,
      "mmed": 7079,
      "Ġ138": 7080,
      "977": 7081,
      "Resizable": 7082,
      "Ġaccept": 7083,
      "ducer": 7084,
      "Ġ126": 7085,
      "Engine": 7086,
      "LeftIcon": 7087,
      "è¯·": 7088,
      "Ġprefetch": 7089,
      "cision": 7090,
      "ĠTooltipPrimitive": 7091,
      "JSX": 7092,
      "Ġspeed": 7093,
      "966": 7094,
      "Multiple": 7095,
      "ArrowDown": 7096,
      "Ġmanage": 7097,
      ":[": 7098,
      "connection": 7099,
      "Verify": 7100,
      "Ġattributes": 7101,
      "Ġ127": 7102,
      "izing": 7103,
      "Ġcomplete": 7104,
      "Ġmembers": 7105,
      "Float": 7106,
      "OPTIONS": 7107,
      "Ġcompany": 7108,
      "VIEW": 7109,
      "whitespace": 7110,
      "openreplay": 7111,
      "ructor": 7112,
      "636": 7113,
      "Pol": 7114,
      "complete": 7115,
      "Ġoc": 7116,
      "ChartContainer": 7117,
      "ĠonMouseEnter": 7118,
      "hr": 7119,
      "418": 7120,
      "append": 7121,
      "486": 7122,
      "955": 7123,
      "agram": 7124,
      "ina": 7125,
      "Ġflag": 7126,
      "ventory": 7127,
      "Rename": 7128,
      "ĠSidebarGroup": 7129,
      "ĠDrawerPrimitive": 7130,
      "Ġpackage": 7131,
      "Ġextract": 7132,
      "Twitter": 7133,
      "598": 7134,
      "ĠLanding": 7135,
      "BoundingClientRect": 7136,
      "getItem": 7137,
      "Configuration": 7138,
      "pires": 7139,
      "326": 7140,
      "Dash": 7141,
      "portal": 7142,
      "---": 7143,
      "446": 7144,
      "784": 7145,
      "EV": 7146,
      "headless": 7147,
      "copied": 7148,
      "Ġms": 7149,
      "existing": 7150,
      "published": 7151,
      "445": 7152,
      "329": 7153,
      "smooth": 7154,
      "LAY": 7155,
      "ĠLine": 7156,
      "prisma": 7157,
      "Ġstri": 7158,
      "Ġdepth": 7159,
      "422": 7160,
      "Ġ118": 7161,
      "coder": 7162,
      "oh": 7163,
      "={[\"": 7164,
      "ĠTimeline": 7165,
      "Series": 7166,
      "Ġ<>{": 7167,
      "ĠisValid": 7168,
      "Ġnever": 7169,
      "Google": 7170,
      "ĠHoverCard": 7171,
      "876": 7172,
      "Cookie": 7173,
      "302": 7174,
      "gacy": 7175,
      "keydown": 7176,
      "140": 7177,
      "amping": 7178,
      "cards": 7179,
      "prs": 7180,
      "Ġve": 7181,
      "Ġrevalidate": 7182,
      "Pattern": 7183,
      "Ġ143": 7184,
      "Ġnote": 7185,
      "407": 7186,
      "647": 7187,
      "ality": 7188,
      "owner": 7189,
      "AccordionItem": 7190,
      "868": 7191,
      "ibility": 7192,
      "Ġconversation": 7193,
      "venue": 7194,
      "632": 7195,
      "Eye": 7196,
      "What": 7197,
      "%-": 7198,
      "433": 7199,
      "Ġclean": 7200,
      "Ġ'')": 7201,
      "525": 7202,
      "uz": 7203,
      "ĠTer": 7204,
      "AvatarImage": 7205,
      "566": 7206,
      "lied": 7207,
      "Ġstarted": 7208,
      "licit": 7209,
      "grow": 7210,
      "rail": 7211,
      "present": 7212,
      "Sortable": 7213,
      "Aw": 7214,
      "Ġæ": 7215,
      "757": 7216,
      "forms": 7217,
      "Ġcheckout": 7218,
      "ku": 7219,
      "support": 7220,
      "Ġskill": 7221,
      "getBoundingClientRect": 7222,
      "tribution": 7223,
      "Ġinner": 7224,
      "Ġ160": 7225,
      "multiple": 7226,
      "lots": 7227,
      "ĠSource": 7228,
      "388": 7229,
      "ĠStar": 7230,
      "slotTarget": 7231,
      "ĠPropsType": 7232,
      "Ġstorage": 7233,
      "463": 7234,
      "more": 7235,
      "Ġissue": 7236,
      "Ġexpanded": 7237,
      "ĠforNode": 7238,
      "PS": 7239,
      "cloud": 7240,
      "Ġreplace": 7241,
      "conversation": 7242,
      "Ġattribute": 7243,
      "LAB": 7244,
      "mobx": 7245,
      "ists": 7246,
      "597": 7247,
      "299": 7248,
      "req": 7249,
      "553": 7250,
      "Ġtech": 7251,
      "AccordionPrimitive": 7252,
      "iffness": 7253,
      "olt": 7254,
      "Ġstats": 7255,
      "exical": 7256,
      "ĠTop": 7257,
      "moz": 7258,
      "509": 7259,
      "ĠBack": 7260,
      "velopers": 7261,
      "Like": 7262,
      "PAGE": 7263,
      "Policy": 7264,
      "(\"./": 7265,
      "Ġperformance": 7266,
      "xyz": 7267,
      "Buffer": 7268,
      "fallback": 7269,
      "341": 7270,
      "Ġoff": 7271,
      "Collective": 7272,
      "transaction": 7273,
      "TabsList": 7274,
      "Ġproperties": 7275,
      "Ġowner": 7276,
      "Emoji": 7277,
      "Apply": 7278,
      "COLORS": 7279,
      "Points": 7280,
      "IGHT": 7281,
      "412": 7282,
      "359": 7283,
      "Preference": 7284,
      "olar": 7285,
      "vision": 7286,
      "Ġrendered": 7287,
      "Ġnavigator": 7288,
      "Ġwait": 7289,
      "958": 7290,
      "854": 7291,
      "324": 7292,
      "BASE": 7293,
      "getElementById": 7294,
      "Ġpanel": 7295,
      "Ġcommunity": 7296,
      "Quick": 7297,
      "677": 7298,
      "Uti": 7299,
      "ĠHTMLAttributes": 7300,
      "arte": 7301,
      "Ġstiffness": 7302,
      "Ġreference": 7303,
      "349": 7304,
      "Ġupdates": 7305,
      "briOS": 7306,
      "Ġjust": 7307,
      "ĠPopoverPrimitive": 7308,
      "heduled": 7309,
      "got": 7310,
      "ĠFi": 7311,
      "ĠFormControl": 7312,
      "redux": 7313,
      "ĠRootLayout": 7314,
      "322": 7315,
      "Blitz": 7316,
      "Cms": 7317,
      "invite": 7318,
      "within": 7319,
      "ĠKey": 7320,
      "Ġschemas": 7321,
      "724": 7322,
      "807": 7323,
      "about": 7324,
      "querySelector": 7325,
      "Ġfollowing": 7326,
      "428": 7327,
      "864": 7328,
      "ChangeEvent": 7329,
      "templates": 7330,
      "317": 7331,
      "Ġ}]": 7332,
      "936": 7333,
      "fy": 7334,
      "åŃ": 7335,
      "ĠonSave": 7336,
      ")_": 7337,
      "737": 7338,
      "Pill": 7339,
      "isValid": 7340,
      "Dollar": 7341,
      "ĠQ": 7342,
      "ĠdefaultValues": 7343,
      "Ġshort": 7344,
      "TableHeader": 7345,
      "ORT": 7346,
      "Ġdivide": 7347,
      "jpg": 7348,
      "baseClass": 7349,
      "ĠqueryKey": 7350,
      "ĠVariantPropType": 7351,
      "tinue": 7352,
      "ĠPath": 7353,
      "Apps": 7354,
      "................................": 7355,
      "DOM": 7356,
      "bi": 7357,
      "Ġreport": 7358,
      "ĠisRe": 7359,
      "ĠDescendants": 7360,
      "ĠNodeOverridesType": 7361,
      "ĠlogEvent": 7362,
      "ighlighter": 7363,
      "signozhq": 7364,
      "ĠArgPropType": 7365,
      "ĠDescendantsType": 7366,
      "515": 7367,
      "Ġssr": 7368,
      "ĠClick": 7369,
      "786": 7370,
      "Preset": 7371,
      "report": 7372,
      "Ġdevice": 7373,
      "ĠAnimated": 7374,
      "Ġdamping": 7375,
      "Spec": 7376,
      "906": 7377,
      "rove": 7378,
      "Deploy": 7379,
      "DI": 7380,
      "Ġbalance": 7381,
      "arkles": 7382,
      "Ġconvert": 7383,
      "Explorer": 7384,
      "ĠFormItem": 7385,
      "isDisabled": 7386,
      "LES": 7387,
      "843": 7388,
      "917": 7389,
      "UN": 7390,
      "infer": 7391,
      "Ġ122": 7392,
      "Ġtimeout": 7393,
      "Ġtools": 7394,
      ")`,": 7395,
      "437": 7396,
      "aur": 7397,
      "setIs": 7398,
      "exports": 7399,
      "SelectOption": 7400,
      "Ġaxis": 7401,
      "lobe": 7402,
      "([]);": 7403,
      "Pick": 7404,
      "Ġact": 7405,
      "proval": 7406,
      "sticky": 7407,
      "Contract": 7408,
      "Created": 7409,
      "Batch": 7410,
      "Ten": 7411,
      "614": 7412,
      "Ġcart": 7413,
      "Ġtailwind": 7414,
      "veal": 7415,
      "Ġchannel": 7416,
      "SidebarMenuItem": 7417,
      "867": 7418,
      "009": 7419,
      "wordmark": 7420,
      "'>)": 7421,
      "TED": 7422,
      "notifications": 7423,
      "å¼": 7424,
      "ric": 7425,
      "subtle": 7426,
      "723": 7427,
      "Some": 7428,
      "Alt": 7429,
      "Ġnotifications": 7430,
      "ĠGlobal": 7431,
      "createContext": 7432,
      "clude": 7433,
      "structions": 7434,
      "stretch": 7435,
      "Ġcompleted": 7436,
      "320": 7437,
      "nhost": 7438,
      "765": 7439,
      "Del": 7440,
      "ĠElement": 7441,
      "ĠPlay": 7442,
      "483": 7443,
      "962": 7444,
      "Rich": 7445,
      "universal": 7446,
      "hone": 7447,
      "501": 7448,
      "Ġchallenge": 7449,
      "763": 7450,
      "DATA": 7451,
      "523": 7452,
      "ert": 7453,
      "Ġ144": 7454,
      "gt": 7455,
      "Ñı": 7456,
      "Ġthrough": 7457,
      "423": 7458,
      "overse": 7459,
      "Ġsmall": 7460,
      "Ġzod": 7461,
      "Ġbranch": 7462,
      "Ġeas": 7463,
      ")).": 7464,
      "ĠgetS": 7465,
      "ialized": 7466,
      "Before": 7467,
      "))}": 7468,
      "577": 7469,
      "Ġunique": 7470,
      "](#": 7471,
      "frames": 7472,
      "asset": 7473,
      "Ġexpand": 7474,
      "ĠonMouseLeave": 7475,
      "WR": 7476,
      "uard": 7477,
      "useQuery": 7478,
      "usage": 7479,
      "sideOffset": 7480,
      "PC": 7481,
      "ĠcreatedAt": 7482,
      "Uri": 7483,
      "Controlled": 7484,
      "ĠGoogle": 7485,
      "FORM": 7486,
      "593": 7487,
      "ĠTHREE": 7488,
      "698": 7489,
      "855": 7490,
      "lability": 7491,
      "747": 7492,
      "Ġrece": 7493,
      "setting": 7494,
      "\")),": 7495,
      "ĠTransaction": 7496,
      "Ġautomatic": 7497,
      "sing": 7498,
      "130": 7499,
      "Switcher": 7500,
      "798": 7501,
      "isSelected": 7502,
      "Rules": 7503,
      "Connected": 7504,
      "Ġquantity": 7505,
      "LIN": 7506,
      "ä¿": 7507,
      "DropdownMenuSeparator": 7508,
      "ĠviewCtx": 7509,
      "852": 7510,
      "Ġ\">": 7511,
      "lite": 7512,
      "ĠPrompt": 7513,
      "898": 7514,
      "studioCtx": 7515,
      "alth": 7516,
      "719": 7517,
      "ĠðŁ": 7518,
      "Ġdestructive": 7519,
      "ĠRequest": 7520,
      "ĠcolorScheme": 7521,
      "tailwindcss": 7522,
      "Dimensions": 7523,
      "alpha": 7524,
      "565": 7525,
      "sections": 7526,
      "Shell": 7527,
      "ĠMAX": 7528,
      "663": 7529,
      "ĠcurrentPage": 7530,
      "000000": 7531,
      "Ġwallet": 7532,
      "eting": 7533,
      "permissions": 7534,
      "582": 7535,
      "favicon": 7536,
      "sdk": 7537,
      "ĠAb": 7538,
      "Ġ142": 7539,
      "EB": 7540,
      "Pay": 7541,
      "ĠAccordionPrimitive": 7542,
      "697": 7543,
      "verity": 7544,
      "Ġ97": 7545,
      "}):": 7546,
      "CodeBlock": 7547,
      "ĠReturnType": 7548,
      "ĠTailwind": 7549,
      "udy": 7550,
      "ç½": 7551,
      "668": 7552,
      "CommandGroup": 7553,
      "657": 7554,
      "928": 7555,
      "`](/": 7556,
      "non": 7557,
      "entered": 7558,
      "Uploading": 7559,
      "MenuOpen": 7560,
      "Ellipsis": 7561,
      "Ġdot": 7562,
      "Ġthan": 7563,
      "725": 7564,
      "fol": 7565,
      "hy": 7566,
      "reason": 7567,
      "Ġintl": 7568,
      "533": 7569,
      "GRO": 7570,
      "Rot": 7571,
      "ĠonRe": 7572,
      "991": 7573,
      "ISOString": 7574,
      "733": 7575,
      "Funnel": 7576,
      "ĠdefaultOpen": 7577,
      "OnChange": 7578,
      "CP": 7579,
      "Pop": 7580,
      "ĠÐ¿": 7581,
      "Clock": 7582,
      "Ġinside": 7583,
      "Ġassign": 7584,
      "gex": 7585,
      "sian": 7586,
      "ĠmaxLength": 7587,
      "Yes": 7588,
      "Ġmouse": 7589,
      "aker": 7590,
      "plane": 7591,
      "Ġtri": 7592,
      "Ġinte": 7593,
      "ĠDropdown": 7594,
      "Ġnotes": 7595,
      "479": 7596,
      "Ġ'--": 7597,
      "ĠMore": 7598,
      "Ġkeys": 7599,
      "Rendering": 7600,
      "results": 7601,
      "913": 7602,
      "AY": 7603,
      "Ġcorrect": 7604,
      "Deleting": 7605,
      "ĠDialogFooter": 7606,
      "588": 7607,
      "Ġblocks": 7608,
      "022": 7609,
      "Ġco": 7610,
      "Ġicons": 7611,
      "www": 7612,
      "516": 7613,
      "Pen": 7614,
      "`:": 7615,
      "aniti": 7616,
      "aco": 7617,
      "outube": 7618,
      "transactions": 7619,
      "notes": 7620,
      "Smart": 7621,
      "ĠTrash": 7622,
      "Bo": 7623,
      "tc": 7624,
      "ĠhandleMouse": 7625,
      "914": 7626,
      "prefix": 7627,
      "ImageUrl": 7628,
      "755": 7629,
      "smoverse": 7630,
      "ĠMulti": 7631,
      "LoggedIn": 7632,
      "ĉĉĉ": 7633,
      "ĠPopoverTrigger": 7634,
      "ĠReadonly": 7635,
      "]_": 7636,
      "ĠToaster": 7637,
      "izationKeys": 7638,
      "alars": 7639,
      "database": 7640,
      "754": 7641,
      "!,": 7642,
      "(...": 7643,
      "AG": 7644,
      "region": 7645,
      "Published": 7646,
      "583": 7647,
      "605": 7648,
      "param": 7649,
      "orner": 7650,
      "Ġdone": 7651,
      "eled": 7652,
      "ĠDown": 7653,
      "ĠhandleClose": 7654,
      "Ġbelow": 7655,
      "945": 7656,
      "sitive": 7657,
      "ĠDynamic": 7658,
      "732": 7659,
      "Kbd": 7660,
      "633": 7661,
      "UNT": 7662,
      "]:-": 7663,
      "ĠRE": 7664,
      "Scrollbar": 7665,
      "ĠprojectId": 7666,
      "ìĿ": 7667,
      "449": 7668,
      "Ġediting": 7669,
      "usic": 7670,
      "hesha": 7671,
      "external": 7672,
      "vercel": 7673,
      "Ġthen": 7674,
      "653": 7675,
      "Ġpoints": 7676,
      "240": 7677,
      "781": 7678,
      "regate": 7679,
      "TIME": 7680,
      "Ġmock": 7681,
      "Squad": 7682,
      "au": 7683,
      "ĠAt": 7684,
      "Ġscope": 7685,
      "osmoverse": 7686,
      "Operator": 7687,
      "436": 7688,
      "ĠÂ·": 7689,
      "783": 7690,
      "Ġcontain": 7691,
      "OnHover": 7692,
      "plore": 7693,
      "529": 7694,
      "Issue": 7695,
      "Ġreal": 7696,
      "Ġresources": 7697,
      "587": 7698,
      "Learn": 7699,
      "Ġconfiguration": 7700,
      "Ġframework": 7701,
      ".'": 7702,
      "546": 7703,
      "cat": 7704,
      "sList": 7705,
      "Ġ139": 7706,
      "Ġpush": 7707,
      "Ġmer": 7708,
      "uary": 7709,
      "ĠIconButton": 7710,
      "Ġnotify": 7711,
      "ĠSpace": 7712,
      "$/": 7713,
      "CLA": 7714,
      "nack": 7715,
      "Ur": 7716,
      "orn": 7717,
      "Ġ{`": 7718,
      "ticipant": 7719,
      "635": 7720,
      "acc": 7721,
      "ĠuseRe": 7722,
      "Extension": 7723,
      "ToggleGroupItem": 7724,
      "PaginationItem": 7725,
      "folio": 7726,
      "535": 7727,
      "Ui": 7728,
      "\\/": 7729,
      "hog": 7730,
      "ĠCms": 7731,
      "974": 7732,
      "Ġui": 7733,
      "ialize": 7734,
      "PER": 7735,
      "Ġcta": 7736,
      "Ġbetween": 7737,
      "Ġyet": 7738,
      "812": 7739,
      "ĠSubmit": 7740,
      "926": 7741,
      "ĠFragment": 7742,
      "disable": 7743,
      "969": 7744,
      "Fade": 7745,
      "magic": 7746,
      "771": 7747,
      "AlertDescription": 7748,
      "Late": 7749,
      "margin": 7750,
      "éĻ": 7751,
      "Validate": 7752,
      "Ġnone": 7753,
      "thumb": 7754,
      "Ġ512": 7755,
      "enefit": 7756,
      "518": 7757,
      "Ġkeep": 7758,
      "Ġ'&": 7759,
      "ĠToggleGroup": 7760,
      "âĮ": 7761,
      "adar": 7762,
      "formState": 7763,
      "662": 7764,
      "Ġswitcher": 7765,
      "ĠBarChart": 7766,
      "Ġpopover": 7767,
      "ĠonAdd": 7768,
      "codeURI": 7769,
      "ĠPopoverContent": 7770,
      "ento": 7771,
      "567": 7772,
      "actory": 7773,
      "artesian": 7774,
      "Have": 7775,
      "Triangle": 7776,
      "voc": 7777,
      "Timezone": 7778,
      "sizing": 7779,
      "Registry": 7780,
      "Ġ129": 7781,
      "Ġblog": 7782,
      "currentPage": 7783,
      "603": 7784,
      "Package": 7785,
      "Ġedge": 7786,
      "788": 7787,
      "ailability": 7788,
      "Signal": 7789,
      "Ġfeedback": 7790,
      "Ġtenancy": 7791,
      "mozilla": 7792,
      "514": 7793,
      "FFA": 7794,
      "contribut": 7795,
      "Ġpermissions": 7796,
      "Ġfeed": 7797,
      "409": 7798,
      "712": 7799,
      "×ķ": 7800,
      "ĠResizable": 7801,
      "scriber": 7802,
      "atist": 7803,
      "ĠzodResolver": 7804,
      "dating": 7805,
      "442": 7806,
      "MenubarPrimitive": 7807,
      "tained": 7808,
      "Ġtoday": 7809,
      "like": 7810,
      "813": 7811,
      "lad": 7812,
      "Ġpersonal": 7813,
      "Ġstar": 7814,
      "labels": 7815,
      "ĠDropdownMenuSeparator": 7816,
      "916": 7817,
      "Return": 7818,
      "791": 7819,
      "properties": 7820,
      "å·": 7821,
      "654": 7822,
      "GridItem": 7823,
      "cil": 7824,
      "ĠUp": 7825,
      "Ġ{[": 7826,
      "ĠIcons": 7827,
      "Tertiary": 7828,
      "Blue": 7829,
      "cause": 7830,
      "rr": 7831,
      "mous": 7832,
      "mar": 7833,
      "DialogProps": 7834,
      "atable": 7835,
      "ĠdataProvider": 7836,
      "createElement": 7837,
      "searchQuery": 7838,
      "ĠAvatarFallback": 7839,
      "LOG": 7840,
      "543": 7841,
      "lines": 7842,
      "759": 7843,
      "Ġpaths": 7844,
      "AM": 7845,
      "Ġtone": 7846,
      "scrollbar": 7847,
      "099": 7848,
      "Ġlatest": 7849,
      "stone": 7850,
      "Heart": 7851,
      "toISOString": 7852,
      ")]\",": 7853,
      "Vote": 7854,
      "Ġreq": 7855,
      "newValue": 7856,
      "LABEL": 7857,
      "513": 7858,
      ">>(": 7859,
      "787": 7860,
      "spec": 7861,
      "Ġreview": 7862,
      "361": 7863,
      "ĠIconPlaceholder": 7864,
      "USD": 7865,
      "asure": 7866,
      "Ġ))": 7867,
      "889": 7868,
      "About": 7869,
      "Mail": 7870,
      "Ġ\"${": 7871,
      "Ġ134": 7872,
      "renderer": 7873,
      "/:": 7874,
      "319": 7875,
      "595": 7876,
      "draw": 7877,
      "Ġold": 7878,
      "ameter": 7879,
      "fiers": 7880,
      "tence": 7881,
      "CommandPrimitive": 7882,
      "627": 7883,
      "748": 7884,
      "Ġeffective": 7885,
      "FromProps": 7886,
      "615": 7887,
      "Intro": 7888,
      "Ġ012": 7889,
      "weight": 7890,
      "failed": 7891,
      "Ġwould": 7892,
      "isExpanded": 7893,
      "443": 7894,
      "menubar": 7895,
      "ĠinitialData": 7896,
      "ĠNextPage": 7897,
      "warn": 7898,
      "igration": 7899,
      "aside": 7900,
      "Ġbest": 7901,
      "Split": 7902,
      "Ġletter": 7903,
      "containerRef": 7904,
      "ÑĤÐµ": 7905,
      "Ġcomments": 7906,
      "aracters": 7907,
      "CS": 7908,
      "pattern": 7909,
      "term": 7910,
      "ĠuseSidebar": 7911,
      "Ins": 7912,
      "DropdownMenuGroup": 7913,
      "429": 7914,
      "OK": 7915,
      "åľ": 7916,
      "ComponentType": 7917,
      "Ġcannot": 7918,
      "Monitor": 7919,
      "éĩ": 7920,
      "DropdownMenuLabel": 7921,
      "Transactions": 7922,
      "Mock": 7923,
      "309": 7924,
      "coded": 7925,
      "SidebarMenuButton": 7926,
      "Ġmost": 7927,
      "',\\": 7928,
      "Ġdelta": 7929,
      "DialogTrigger": 7930,
      "permission": 7931,
      "894": 7932,
      "ERY": 7933,
      "Two": 7934,
      "sData": 7935,
      "Ġsurvey": 7936,
      "ĠActivity": 7937,
      "Flag": 7938,
      "don": 7939,
      "Ġthere": 7940,
      "ievement": 7941,
      "onymous": 7942,
      "Handlers": 7943,
      "643": 7944,
      "rose": 7945,
      "integrations": 7946,
      "ĠStore": 7947,
      "associated": 7948,
      "ĠCheckIcon": 7949,
      "638": 7950,
      "Paper": 7951,
      "ditCard": 7952,
      "HTMLElement": 7953,
      "ĠÐ¸": 7954,
      "ĠÐ½Ð°": 7955,
      "orter": 7956,
      "topic": 7957,
      "Ġgraph": 7958,
      "matter": 7959,
      "alan": 7960,
      "Repository": 7961,
      "Ġsorted": 7962,
      "569": 7963,
      "ĠDateTime": 7964,
      "ComboboxPrimitive": 7965,
      "Ġhome": 7966,
      "785": 7967,
      "491": 7968,
      "ĠDesign": 7969,
      "closure": 7970,
      "ents": 7971,
      "ĠWrapper": 7972,
      "####": 7973,
      "Tracking": 7974,
      "apollo": 7975,
      "ContainerRef": 7976,
      "Ġderive": 7977,
      "Ġpick": 7978,
      "ĠFrame": 7979,
      "Updated": 7980,
      "Ġallowed": 7981,
      "']}": 7982,
      "eded": 7983,
      "iness": 7984,
      "Compare": 7985,
      "Ġnodes": 7986,
      "gn": 7987,
      "802": 7988,
      "=\"\">": 7989,
      "ordin": 7990,
      "872": 7991,
      "Nested": 7992,
      "Expr": 7993,
      "TooltipPrimitive": 7994,
      "HEIGHT": 7995,
      "Ġopts": 7996,
      "Advanced": 7997,
      "formatted": 7998,
      "ĠsetCopied": 7999,
      "],\\": 8000,
      "Expression": 8001,
      "ĠSelectors": 8002,
      "ĠLocale": 8003,
      "607": 8004,
      "ĠuseColorMode": 8005,
      "å½": 8006,
      "Ġ{({": 8007,
      "ells": 8008,
      "lis": 8009,
      "Ġbreadcrumb": 8010,
      "ĠClose": 8011,
      "782": 8012,
      "Ġcaption": 8013,
      "Ġhelper": 8014,
      "211": 8015,
      "pdf": 8016,
      "Ġonce": 8017,
      "557": 8018,
      "471": 8019,
      "layouts": 8020,
      "Archive": 8021,
      "tur": 8022,
      "ĠisPending": 8023,
      "963": 8024,
      "nodes": 8025,
      "ĠContact": 8026,
      "dr": 8027,
      "sync": 8028,
      "PlasmicIcon": 8029,
      "starter": 8030,
      "729": 8031,
      "OAuth": 8032,
      "æķ": 8033,
      "inking": 8034,
      "RefObject": 8035,
      "526": 8036,
      "dLayout": 8037,
      "Ġmulti": 8038,
      "Ġgl": 8039,
      "573": 8040,
      "anji": 8041,
      "ranscript": 8042,
      "PlusIcon": 8043,
      "ĠOrganization": 8044,
      "Ġ250": 8045,
      "resume": 8046,
      "705": 8047,
      "PopoverPrimitive": 8048,
      "console": 8049,
      "682": 8050,
      "uments": 8051,
      "issue": 8052,
      "Ġ[&:": 8053,
      "ĠuseFormContext": 8054,
      "Ġ\"\")": 8055,
      "?.();": 8056,
      "774": 8057,
      "readOnly": 8058,
      "745": 8059,
      "Ġhour": 8060,
      "564": 8061,
      "AlertDialogPrimitive": 8062,
      ">()": 8063,
      "nolog": 8064,
      "Bold": 8065,
      "Highlighted": 8066,
      "danger": 8067,
      "482": 8068,
      "ĠappId": 8069,
      "Ø§ÙĦ": 8070,
      "Ġoccur": 8071,
      "FB": 8072,
      "FieldGroup": 8073,
      "ĠminHeight": 8074,
      "BooleanChoiceArg": 8075,
      "ĠSingleBooleanChoiceArg": 8076,
      "Other": 8077,
      "Ġquick": 8078,
      "ĠMD": 8079,
      "ĠAvatarImage": 8080,
      "Recording": 8081,
      "FIG": 8082,
      "score": 8083,
      "ĠSE": 8084,
      "lationship": 8085,
      "âĢ¦": 8086,
      "QUERY": 8087,
      "(<": 8088,
      "Ð¿": 8089,
      "ĠsetNew": 8090,
      "779": 8091,
      "ĠArticle": 8092,
      "ĠsetC": 8093,
      "Self": 8094,
      "746": 8095,
      "Arena": 8096,
      "Kind": 8097,
      "Ġlines": 8098,
      "327": 8099,
      "ĠMenuItem": 8100,
      "ĠSIDE": 8101,
      "fici": 8102,
      "Ġdecla": 8103,
      "Ġ\"../../../": 8104,
      "decor": 8105,
      "geist": 8106,
      "ĠTSurvey": 8107,
      "mediate": 8108,
      "tech": 8109,
      "ĠuseRender": 8110,
      "Ġeffect": 8111,
      "}`)": 8112,
      "pageSize": 8113,
      "ĠMarkdown": 8114,
      "Letter": 8115,
      "Ð·": 8116,
      "typescript": 8117,
      "351": 8118,
      "371": 8119,
      "Floating": 8120,
      "Ġcollapsible": 8121,
      "Stripe": 8122,
      "nackbar": 8123,
      "nim": 8124,
      "959": 8125,
      "brary": 8126,
      "527": 8127,
      "805": 8128,
      "Hours": 8129,
      "Ġ011": 8130,
      "rations": 8131,
      "={-": 8132,
      "ContextProps": 8133,
      "Ġtwo": 8134,
      "\\\\": 8135,
      "Ġ\"\");": 8136,
      "Ġ(_,": 8137,
      "Ang": 8138,
      "Ġbold": 8139,
      "ideos": 8140,
      "feed": 8141,
      "tensity": 8142,
      "604": 8143,
      "='/": 8144,
      "652": 8145,
      "ĠparseInt": 8146,
      "Insert": 8147,
      "773": 8148,
      "resses": 8149,
      "Processing": 8150,
      "âĮĺ": 8151,
      "embed": 8152,
      "Website": 8153,
      "é¡": 8154,
      "806": 8155,
      "rated": 8156,
      "InThe": 8157,
      "agn": 8158,
      "Ġalready": 8159,
      "Sources": 8160,
      "merge": 8161,
      "727": 8162,
      "ople": 8163,
      "imon": 8164,
      "hello": 8165,
      "ĠisError": 8166,
      "orization": 8167,
      "Trial": 8168,
      "789": 8169,
      "members": 8170,
      "521": 8171,
      "MAX": 8172,
      "Ġ(_": 8173,
      "ĠDataGrid": 8174,
      "requen": 8175,
      "Definition": 8176,
      "æĸ°": 8177,
      "è¾": 8178,
      "Attachment": 8179,
      "handler": 8180,
      "cossistant": 8181,
      "713": 8182,
      "}',": 8183,
      "ases": 8184,
      "Any": 8185,
      "Ġperiod": 8186,
      "Hex": 8187,
      "ished": 8188,
      "job": 8189,
      "isEditing": 8190,
      "Photo": 8191,
      "Ġlong": 8192,
      "Ġ137": 8193,
      "Ġdis": 8194,
      "pix": 8195,
      "Ùħ": 8196,
      "Ġhook": 8197,
      "ItemContent": 8198,
      "Ġshared": 8199,
      "åĨ": 8200,
      "clientX": 8201,
      "ĠLabelPrimitive": 8202,
      "Ġfocused": 8203,
      "rity": 8204,
      "ontmatter": 8205,
      "Bind": 8206,
      "ÙĬ": 8207,
      "imonial": 8208,
      "618": 8209,
      "ife": 8210,
      "ĠstrokeDash": 8211,
      "TextAreaElement": 8212,
      "Welcome": 8213,
      "Ġsingle": 8214,
      "expense": 8215,
      "884": 8216,
      "Ġpermission": 8217,
      "NavigationMenuPrimitive": 8218,
      "542": 8219,
      "718": 8220,
      "Ġinstead": 8221,
      "scope": 8222,
      "Ġjo": 8223,
      "ĠIconBrand": 8224,
      "ParagraphElement": 8225,
      "Campaign": 8226,
      "Assets": 8227,
      "434": 8228,
      "Escape": 8229,
      "Ring": 8230,
      "Ġ145": 8231,
      "Ġchar": 8232,
      "613": 8233,
      "857": 8234,
      "Bubble": 8235,
      "sletter": 8236,
      "tone": 8237,
      "END": 8238,
      "Ġ[&_.": 8239,
      "ĠThemeProvider": 8240,
      "Database": 8241,
      "Ġanalytics": 8242,
      "ĠDialogTrigger": 8243,
      "Utils": 8244,
      "nimara": 8245,
      "Promo": 8246,
      "å¯": 8247,
      "floating": 8248,
      "946": 8249,
      "tist": 8250,
      "965": 8251,
      "LayoutProps": 8252,
      "Positioner": 8253,
      "ĠCopilotKit": 8254,
      "pay": 8255,
      "à¤¾": 8256,
      "codeURIComponent": 8257,
      "897": 8258,
      "basic": 8259,
      "ĠTableRow": 8260,
      "TYPES": 8261,
      "×Ļ": 8262,
      "Condition": 8263,
      "Ġwatch": 8264,
      "DateString": 8265,
      "Ġmodi": 8266,
      "DisplayName": 8267,
      "ĠuseParams": 8268,
      "794": 8269,
      "ĠModel": 8270,
      "717": 8271,
      "aults": 8272,
      "381": 8273,
      "Ġcanonical": 8274,
      "FunctionComponent": 8275,
      "823": 8276,
      "ited": 8277,
      "lexical": 8278,
      "ĠToken": 8279,
      "Notes": 8280,
      "Framework": 8281,
      "ĠonConfirm": 8282,
      "Ġinstall": 8283,
      "Ġdeploy": 8284,
      "ĠMobile": 8285,
      "ria": 8286,
      "695": 8287,
      "Ġtake": 8288,
      "ĠisFetching": 8289,
      "FieldValues": 8290,
      "ĠÐ´": 8291,
      "Terminal": 8292,
      "ĠAddress": 8293,
      "559": 8294,
      "Used": 8295,
      "=\"/\"": 8296,
      "'ll": 8297,
      "HO": 8298,
      "ade": 8299,
      "Ġ2000": 8300,
      "æł": 8301,
      "apply": 8302,
      "Ġslide": 8303,
      "market": 8304,
      "legend": 8305,
      "ĠSupport": 8306,
      "ĠAND": 8307,
      "Ġexperience": 8308,
      "findIndex": 8309,
      "547": 8310,
      "Pixel": 8311,
      "Ġfr": 8312,
      "urney": 8313,
      "Ġenvironment": 8314,
      "Ġ002": 8315,
      "[&>": 8316,
      "Directory": 8317,
      ".\");": 8318,
      "MB": 8319,
      "986": 8320,
      "606": 8321,
      "normalized": 8322,
      "dity": 8323,
      "filename": 8324,
      "ĠuseCurrent": 8325,
      "Discount": 8326,
      "åĽ": 8327,
      "ratio": 8328,
      "ynch": 8329,
      "toolbar": 8330,
      "float": 8331,
      "Ġautomatically": 8332,
      "Join": 8333,
      "clone": 8334,
      "SvgIconProps": 8335,
      "803": 8336,
      "Correct": 8337,
      "Ġcover": 8338,
      "Stars": 8339,
      "Ġinvalid": 8340,
      "ĠMd": 8341,
      "ometry": 8342,
      "Sections": 8343,
      "photo": 8344,
      "ALL": 8345,
      "NotFound": 8346,
      "SetStateAction": 8347,
      "628": 8348,
      "716": 8349,
      "ĠSm": 8350,
      "compact": 8351,
      "Using": 8352,
      "glad": 8353,
      "Ġsuggestions": 8354,
      "ĠLive": 8355,
      "ĠPricing": 8356,
      "arketing": 8357,
      "overview": 8358,
      "ĠSIDEBAR": 8359,
      "Volume": 8360,
      "XIcon": 8361,
      "ĠPlan": 8362,
      "Ġtokens": 8363,
      "Ġboth": 8364,
      "MENT": 8365,
      "459": 8366,
      "ĠactiveTab": 8367,
      "Ġtwitter": 8368,
      "setItem": 8369,
      "58579": 8370,
      "ĠCSSProperties": 8371,
      "wards": 8372,
      "Ġrunning": 8373,
      "939": 8374,
      "TP": 8375,
      "Denom": 8376,
      "è§": 8377,
      "764": 8378,
      ")]'": 8379,
      "ĠStrict": 8380,
      "sPage": 8381,
      "touch": 8382,
      "846": 8383,
      "Ok": 8384,
      "Ġ'_": 8385,
      "585": 8386,
      "commen": 8387,
      "requency": 8388,
      "ullable": 8389,
      "ButtonVariant": 8390,
      "RangeField": 8391,
      "Minus": 8392,
      "Ġflat": 8393,
      "981": 8394,
      "Hello": 8395,
      "HeaderProps": 8396,
      "Ġfade": 8397,
      "heel": 8398,
      "FieldValue": 8399,
      "Coupon": 8400,
      "ĠCre": 8401,
      "ĠAgent": 8402,
      "particles": 8403,
      "892": 8404,
      "ĠĠĠĠĠĠĠĠĠĠĠĠĠĠĠĠĠĠĠĠĠĠĠĠĠĠĠĠĠĠĠĠĠĠĠĠĠĠĠĠĠĠĠĠĠĠĠĠĠĠĠĠĠĠĠĠĠĠĠĠĠĠĠĠ": 8405,
      "CLASS": 8406,
      "Ġbuilt": 8407,
      "ĠRO": 8408,
      "Ġadditional": 8409,
      "915": 8410,
      "Safes": 8411,
      "chunk": 8412,
      "982": 8413,
      "887": 8414,
      "Ġpreset": 8415,
      "CK": 8416,
      "memo": 8417,
      "anim": 8418,
      "ĠMon": 8419,
      "ĠnewValue": 8420,
      "ĠGithub": 8421,
      "948": 8422,
      "}\",": 8423,
      "Ġsocial": 8424,
      "ĠTodo": 8425,
      "globals": 8426,
      "atistics": 8427,
      "524": 8428,
      "Large": 8429,
      "remote": 8430,
      "osmo": 8431,
      "Generic": 8432,
      "399": 8433,
      "uuid": 8434,
      "timer": 8435,
      "ĠsetPage": 8436,
      "classList": 8437,
      "clipPath": 8438,
      "!</": 8439,
      "Done": 8440,
      "Mask": 8441,
      "]+": 8442,
      "lies": 8443,
      "tcha": 8444,
      "617": 8445,
      "Ġbucket": 8446,
      "079": 8447,
      "ynchron": 8448,
      "623": 8449,
      "Visual": 8450,
      "Ġ\"ðŁ": 8451,
      "ĠuseStyles": 8452,
      "isN": 8453,
      "...'": 8454,
      "ĠsetEditing": 8455,
      "coming": 8456,
      "tenancy": 8457,
      "CopilotChat": 8458,
      "COUNT": 8459,
      "Allowed": 8460,
      "Pass": 8461,
      "762": 8462,
      "Ġlazy": 8463,
      "FFFF": 8464,
      "Parameters": 8465,
      "927": 8466,
      "ĠSession": 8467,
      "review": 8468,
      "715": 8469,
      "reat": 8470,
      "iframe": 8471,
      "ĠopenGraph": 8472,
      "Job": 8473,
      "Vars": 8474,
      "preset": 8475,
      "Ġspec": 8476,
      "ChevronDownIcon": 8477,
      "626": 8478,
      "hot": 8479,
      "081": 8480,
      "57575": 8481,
      "invert": 8482,
      "Ġbecause": 8483,
      "correct": 8484,
      "826": 8485,
      "anity": 8486,
      "ĠgetServerSideProps": 8487,
      "Shown": 8488,
      "()}</": 8489,
      "PaginationLink": 8490,
      "ho": 8491,
      "Ġcpk": 8492,
      "ĠResource": 8493,
      "Ġlogger": 8494,
      "Logout": 8495,
      "Hx": 8496,
      "Ġarea": 8497,
      "ĠgetUser": 8498,
      "__<\"": 8499,
      "izable": 8500,
      "Char": 8501,
      "commended": 8502,
      "804": 8503,
      "nx": 8504,
      "States": 8505,
      "431": 8506,
      "Ġcourse": 8507,
      "Expi": 8508,
      "ÑĢÐ°": 8509,
      "ecommerce": 8510,
      "Ġgithub": 8511,
      "683": 8512,
      "TRI": 8513,
      "ÑĬ": 8514,
      "lem": 8515,
      "alf": 8516,
      "=\".": 8517,
      "Ġ(()": 8518,
      "882": 8519,
      "currentcolor": 8520,
      "ĠTooltipProvider": 8521,
      "âĢĶ": 8522,
      "Tracker": 8523,
      "cussion": 8524,
      "Finish": 8525,
      "622": 8526,
      "Ñĥ": 8527,
      "started": 8528,
      "depth": 8529,
      "series": 8530,
      "331": 8531,
      "Ġactivity": 8532,
      "Ġitalic": 8533,
      "Ġadded": 8534,
      "ntd": 8535,
      "ĠhandleDelete": 8536,
      "ĠFormat": 8537,
      "resources": 8538,
      "metrics": 8539,
      "\"><": 8540,
      "ĠDrop": 8541,
      "mounted": 8542,
      "Ġatom": 8543,
      "tocol": 8544,
      "EE": 8545,
      "asis": 8546,
      "ception": 8547,
      "TextInput": 8548,
      "849": 8549,
      "937": 8550,
      "ĠonOpen": 8551,
      "Ġalways": 8552,
      "LocalStorage": 8553,
      "runtime": 8554,
      "Ġcontributor": 8555,
      "795": 8556,
      "925": 8557,
      "AU": 8558,
      "bum": 8559,
      "gal": 8560,
      "Ġpublish": 8561,
      "Ġasset": 8562,
      "ĠPanel": 8563,
      "Ġtouch": 8564,
      "ĠDispatch": 8565,
      "anban": 8566,
      "Ġdevelopment": 8567,
      "ĠLucide": 8568,
      "Ġloop": 8569,
      "Ġprovide": 8570,
      "983": 8571,
      "Ġ240": 8572,
      "ContextMenuItem": 8573,
      "mend": 8574,
      "seconds": 8575,
      "Ġsegments": 8576,
      "Ġoptimi": 8577,
      "ĠPlasmicIcon": 8578,
      "ĠCodeBlock": 8579,
      "Extra": 8580,
      "Ny": 8581,
      "mbla": 8582,
      "contract": 8583,
      "Segments": 8584,
      "Creating": 8585,
      "stro": 8586,
      "753": 8587,
      "Ġsplit": 8588,
      "Temp": 8589,
      "finity": 8590,
      "tina": 8591,
      "734": 8592,
      "865": 8593,
      "Ġway": 8594,
      "toHave": 8595,
      "693": 8596,
      "!\"": 8597,
      "Pause": 8598,
      "tation": 8599,
      "deploy": 8600,
      "attribute": 8601,
      "Ġshortcut": 8602,
      "ĠTabsTrigger": 8603,
      "Ġcalculate": 8604,
      "537": 8605,
      "634": 8606,
      "706": 8607,
      "expand": 8608,
      "getContext": 8609,
      "Challenge": 8610,
      "webkit": 8611,
      "CONFIG": 8612,
      "VStack": 8613,
      "LinkProps": 8614,
      "441": 8615,
      "Cy": 8616,
      "Sen": 8617,
      "ĠAudio": 8618,
      "Unknown": 8619,
      "swers": 8620,
      "ĠmakeIcon": 8621,
      "×ķ×": 8622,
      "766": 8623,
      "So": 8624,
      "Identifier": 8625,
      "Ġminutes": 8626,
      "Ġlar": 8627,
      "USER": 8628,
      "Ġoperator": 8629,
      "Sandbox": 8630,
      "highlighted": 8631,
      "ĠEffect": 8632,
      "ĠKeyboardEvent": 8633,
      "ĠuseDe": 8634,
      "msg": 8635,
      "baseline": 8636,
      "ĠĠĠĠĠĠĠĠĠĠĠ": 8637,
      "calcu": 8638,
      "Quantity": 8639,
      "612": 8640,
      "attr": 8641,
      "getState": 8642,
      "CopyButton": 8643,
      "tect": 8644,
      "QueryClient": 8645,
      "TYPE": 8646,
      "rosoft": 8647,
      "554": 8648,
      "873": 8649,
      "pendency": 8650,
      "ĠTabsList": 8651,
      "Ġneeds": 8652,
      "rendingUp": 8653,
      "Err": 8654,
      "Started": 8655,
      "lower": 8656,
      "locked": 8657,
      "Views": 8658,
      "539": 8659,
      "za": 8660,
      "ĠuseUpdate": 8661,
      "ItemTitle": 8662,
      "__,": 8663,
      "heroicons": 8664,
      "*:": 8665,
      "839": 8666,
      "ľħ": 8667,
      "ĠPlatform": 8668,
      "Functions": 8669,
      "perimental": 8670,
      "534": 8671,
      "]>": 8672,
      "Ġ].": 8673,
      "uri": 8674,
      "idle": 8675,
      "Ġsetup": 8676,
      "ĠGraph": 8677,
      "842": 8678,
      "scriptors": 8679,
      "enum": 8680,
      "answer": 8681,
      "Ġtablet": 8682,
      "ĠTextField": 8683,
      "gM": 8684,
      "inary": 8685,
      "Ġwrite": 8686,
      "period": 8687,
      "accessor": 8688,
      "artesianGrid": 8689,
      "703": 8690,
      "Ġ132": 8691,
      "973": 8692,
      "599": 8693,
      "859": 8694,
      "vailability": 8695,
      "Ġdec": 8696,
      "<|": 8697,
      "rief": 8698,
      "Ġpoint": 8699,
      "commend": 8700,
      "ĠinitialValues": 8701,
      "compo": 8702,
      "MenubarItem": 8703,
      "Locked": 8704,
      ":${": 8705,
      "course": 8706,
      "mited": 8707,
      "ĠSpe": 8708,
      "endof": 8709,
      "|>": 8710,
      "Ġsimple": 8711,
      "rade": 8712,
      "Init": 8713,
      "Ġai": 8714,
      "Ġdestination": 8715,
      "abeled": 8716,
      "uides": 8717,
      "imals": 8718,
      "collapse": 8719,
      "Ġ173": 8720,
      "AlertTitle": 8721,
      "ĠsignIn": 8722,
      "Agg": 8723,
      "isRe": 8724,
      "Ġgql": 8725,
      "manage": 8726,
      "endoftext": 8727,
      "erature": 8728,
      "Awesome": 8729,
      "GROUP": 8730,
      "GB": 8731,
      "-[>": 8732,
      "ĠPayment": 8733,
      "Ġlis": 8734,
      "SignUp": 8735,
      "Marker": 8736,
      "Intl": 8737,
      "Ġ170": 8738,
      "sentry": 8739,
      "ĠAnimatePresence": 8740,
      "planets": 8741,
      "IconContext": 8742,
      "Depth": 8743,
      "Private": 8744,
      "Ġprogram": 8745,
      "Mini": 8746,
      "Webhook": 8747,
      "ĠLanguage": 8748,
      "522": 8749,
      "tl": 8750,
      "via": 8751,
      "ĠTask": 8752,
      "ĠBi": 8753,
      "ĠNote": 8754,
      "899": 8755,
      "acer": 8756,
      "Ġtier": 8757,
      "ĠScreen": 8758,
      "åħ¥": 8759,
      "ç½®": 8760,
      "637": 8761,
      "SVGProps": 8762,
      "817": 8763,
      "shesha": 8764,
      "ĠContext": 8765,
      "ĠuseAnimate": 8766,
      "ĠonFocus": 8767,
      "signup": 8768,
      "contains": 8769,
      "814": 8770,
      "834": 8771,
      "AS": 8772,
      "Ġreader": 8773,
      "challenge": 8774,
      "Ġexp": 8775,
      "handleClick": 8776,
      "EmptyState": 8777,
      "Register": 8778,
      "emotion": 8779,
      "éĹ": 8780,
      "tection": 8781,
      "ridge": 8782,
      "Ġcached": 8783,
      "utable": 8784,
      "usiness": 8785,
      "6667": 8786,
      "210": 8787,
      "947": 8788,
      "æĶ": 8789,
      "stic": 8790,
      "602": 8791,
      "Picture": 8792,
      "]}>": 8793,
      "Øª": 8794,
      "MenuButton": 8795,
      "quantity": 8796,
      "pename": 8797,
      "ndo": 8798,
      "intro": 8799,
      "Ġpricing": 8800,
      "Region": 8801,
      "awesome": 8802,
      "coderplanets": 8803,
      "827": 8804,
      "Parts": 8805,
      "ListBox": 8806,
      "Personal": 8807,
      "ĠuseData": 8808,
      "agger": 8809,
      "Ġrendering": 8810,
      "rypto": 8811,
      "MDX": 8812,
      "ids": 8813,
      "serv": 8814,
      "endor": 8815,
      "apping": 8816,
      "crets": 8817,
      "firstName": 8818,
      "847": 8819,
      "tributions": 8820,
      "Ġ190": 8821,
      "Overflow": 8822,
      "ĠrequestAnimationFrame": 8823,
      "ffffff": 8824,
      "Infinite": 8825,
      "ĠHel": 8826,
      "Building": 8827,
      "Ġdatabase": 8828,
      "igame": 8829,
      "ĠsetVisible": 8830,
      "Ġdebounced": 8831,
      ">{`": 8832,
      "SectionProps": 8833,
      "Ġsum": 8834,
      "Exp": 8835,
      "tended": 8836,
      "ĠTableCell": 8837,
      "934": 8838,
      "didate": 8839,
      "ifest": 8840,
      "ĠSubscription": 8841,
      "ResponsiveContainer": 8842,
      "ĠDownload": 8843,
      "Ġeven": 8844,
      "handleChange": 8845,
      "ĠclearInterval": 8846,
      "å·²": 8847,
      "220": 8848,
      "517": 8849,
      "918": 8850,
      "rating": 8851,
      "ĠmaxHeight": 8852,
      "Urls": 8853,
      "capture": 8854,
      "quee": 8855,
      "ãĢģ": 8856,
      "structor": 8857,
      "pick": 8858,
      "Ġstory": 8859,
      "Ġsetting": 8860,
      "Ġsecond": 8861,
      "backdrop": 8862,
      "ĠuserEvent": 8863,
      "quires": 8864,
      "ĠGetServerSideProps": 8865,
      "bolt": 8866,
      ">(\"": 8867,
      "Ġcookie": 8868,
      "stagram": 8869,
      "=\"!": 8870,
      "ItemText": 8871,
      "ĠAC": 8872,
      "ĠExternal": 8873,
      "navbar": 8874,
      "Ġdayjs": 8875,
      "Ġconstructor": 8876,
      "shift": 8877,
      "osted": 8878,
      "rendering": 8879,
      "Ġcalled": 8880,
      "uzz": 8881,
      "Known": 8882,
      "Linked": 8883,
      "à§": 8884,
      "secret": 8885,
      "ntype": 8886,
      "SelectGroup": 8887,
      "aging": 8888,
      "agic": 8889,
      "451": 8890,
      "Should": 8891,
      "plus": 8892,
      "Interactive": 8893,
      "Ġ\"__": 8894,
      "ĠgetVariants": 8895,
      "ÑĤÐ¾": 8896,
      "FormDescription": 8897,
      "Threshold": 8898,
      "738": 8899,
      "}__": 8900,
      "assed": 8901,
      "choice": 8902,
      "ĠsetInterval": 8903,
      "642": 8904,
      "offcanvas": 8905,
      "908": 8906,
      "expected": 8907,
      "...\",": 8908,
      "tailed": 8909,
      "Ġpercentage": 8910,
      "Ð²Ð°": 8911,
      ":!": 8912,
      "follow": 8913,
      "åº": 8914,
      "serif": 8915,
      "681": 8916,
      "Minutes": 8917,
      "Runtime": 8918,
      "Under": 8919,
      "emoji": 8920,
      "Ġ<></": 8921,
      "Ġsections": 8922,
      "ĠgetAll": 8923,
      "Configurable": 8924,
      "883": 8925,
      "ĠuseAnimateIconContext": 8926,
      "Scrol": 8927,
      "687": 8928,
      "ĠyupObject": 8929,
      "keyof": 8930,
      "indexOf": 8931,
      "\\';\\": 8932,
      "Ġworks": 8933,
      "Ġdb": 8934,
      "692": 8935,
      "animated": 8936,
      "Quote": 8937,
      "742": 8938,
      "837": 8939,
      "Suggestion": 8940,
      "481": 8941,
      "rightness": 8942,
      "ĠInputOTP": 8943,
      "Questions": 8944,
      "ĠhelperText": 8945,
      "Symbol": 8946,
      "otes": 8947,
      "Ġwrong": 8948,
      "trace": 8949,
      "Terms": 8950,
      "(_": 8951,
      "923": 8952,
      "Pla": 8953,
      "gmented": 8954,
      "ĨĴ": 8955,
      "Ł¥": 8956,
      "authenticated": 8957,
      "ĠmergeProps": 8958,
      "Ġ136": 8959,
      "Ġworld": 8960,
      "blem": 8961,
      "Ġtimer": 8962,
      "ÑĤÐ°": 8963,
      "Person": 8964,
      "ĠCOL": 8965,
      "Signed": 8966,
      "PaymentMethod": 8967,
      "rule": 8968,
      "ĠAuto": 8969,
      "33579": 8970,
      "Ġsupported": 8971,
      "Port": 8972,
      "951": 8973,
      "Sent": 8974,
      "ous": 8975,
      "popup": 8976,
      "well": 8977,
      "admap": 8978,
      "Ġcheckbox": 8979,
      "Ġspecific": 8980,
      "694": 8981,
      "warded": 8982,
      "OUT": 8983,
      "mm": 8984,
      "ç«": 8985,
      "Ġrecent": 8986,
      "Ġuses": 8987,
      "Room": 8988,
      "supabase": 8989,
      "Ġthreshold": 8990,
      "461": 8991,
      "payloadcms": 8992,
      "ReduceMotion": 8993,
      "long": 8994,
      "quenti": 8995,
      "ĠimageUrl": 8996,
      "Pinned": 8997,
      "ĠuseColorModeValue": 8998,
      "branch": 8999,
      "ĠIndex": 9000,
      "Ġentries": 9001,
      "Shield": 9002,
      "Creator": 9003,
      "onboarding": 9004,
      "Ġpop": 9005,
      "sist": 9006,
      "errorMessage": 9007,
      "Ġaltern": 9008,
      "notation": 9009,
      "(/\\": 9010,
      "ĠManage": 9011,
      "studio": 9012,
      "defaultValue": 9013,
      "ounds": 9014,
      "Watch": 9015,
      "sia": 9016,
      "explorer": 9017,
      "Ġ2024": 9018,
      "stat": 9019,
      "dispatch": 9020,
      "Roles": 9021,
      "ĠRefresh": 9022,
      "&]:": 9023,
      "924": 9024,
      "FO": 9025,
      "WOR": 9026,
      "íķ": 9027,
      "Ġ])": 9028,
      "crm": 9029,
      "669": 9030,
      "574": 9031,
      "oftware": 9032,
      "Sol": 9033,
      "hyd": 9034,
      "contained": 9035,
      "lyra": 9036,
      "'));": 9037,
      "ĠAnalytics": 9038,
      "aN": 9039,
      "(\"__": 9040,
      "Ġrandom": 9041,
      "Ġ192": 9042,
      "\\`": 9043,
      "é¢": 9044,
      "ĠEn": 9045,
      "une": 9046,
      "Ġduring": 9047,
      "691": 9048,
      "InitialProps": 9049,
      "BI": 9050,
      "Knowledge": 9051,
      "ipt": 9052,
      "ellipsis": 9053,
      "opping": 9054,
      "ĠonEdit": 9055,
      "Ġscore": 9056,
      "ĠDropdownMenuLabel": 9057,
      "Ġabove": 9058,
      "help": 9059,
      "teams": 9060,
      "Ġsuper": 9061,
      "836": 9062,
      "907": 9063,
      "Ġlibrary": 9064,
      "extension": 9065,
      "Debug": 9066,
      "ĠWidget": 9067,
      "519": 9068,
      "CTA": 9069,
      "ĠCH": 9070,
      "ĠTransition": 9071,
      "Medium": 9072,
      "NodeName": 9073,
      "Ġcollective": 9074,
      "ĠtrackEvent": 9075,
      "BreadcrumbLink": 9076,
      "modals": 9077,
      "ĠyupString": 9078,
      "ever": 9079,
      "projectId": 9080,
      "Are": 9081,
      "Caret": 9082,
      "Write": 9083,
      "sWith": 9084,
      "Rece": 9085,
      "ĠChevronRight": 9086,
      "ROR": 9087,
      "variables": 9088,
      "954": 9089,
      "Combo": 9090,
      "SITE": 9091,
      "RichText": 9092,
      "903": 9093,
      "ĠisLast": 9094,
      "LayoutEffect": 9095,
      "ĠURLSearchParams": 9096,
      "739": 9097,
      ">.": 9098,
      "Lang": 9099,
      "blob": 9100,
      "require": 9101,
      "Ġtodo": 9102,
      "unch": 9103,
      "PropNames": 9104,
      "Ġarrow": 9105,
      "setup": 9106,
      "685": 9107,
      "widest": 9108,
      "796": 9109,
      "Don": 9110,
      "Lexical": 9111,
      "pref": 9112,
      "Ġquestions": 9113,
      "Ġ\"[": 9114,
      "Ġsample": 9115,
      "Character": 9116,
      "PrimitiveProps": 9117,
      "([\"": 9118,
      "iki": 9119,
      "'}</": 9120,
      "integration": 9121,
      "ĠLi": 9122,
      "writeText": 9123,
      "XT": 9124,
      "callback": 9125,
      "Ġ>;": 9126,
      "ĠArea": 9127,
      "QueryParams": 9128,
      "RenderFunc": 9129,
      "mmediate": 9130,
      "where": 9131,
      "MessageId": 9132,
      "spaces": 9133,
      "ĠagentId": 9134,
      "735": 9135,
      "845": 9136,
      "arr": 9137,
      "Recent": 9138,
      "optimi": 9139,
      "verter": 9140,
      "___": 9141,
      "Ġ186": 9142,
      "savedChanges": 9143,
      "Ġaxios": 9144,
      "Ġmatches": 9145,
      "orders": 9146,
      "ĠgetTranslations": 9147,
      "AccordionTrigger": 9148,
      "ADD": 9149,
      "905": 9150,
      "gine": 9151,
      "second": 9152,
      "ateway": 9153,
      "rank": 9154,
      "regular": 9155,
      "handleClose": 9156,
      "538": 9157,
      "fonts": 9158,
      "ĠdatasheetId": 9159,
      "AccordionContent": 9160,
      "Dimension": 9161,
      "Ġ172": 9162,
      "RenderOpts": 9163,
      "Strategy": 9164,
      "ĠvariableType": 9165,
      "532": 9166,
      "Snippet": 9167,
      "Ġlearn": 9168,
      "ĠConfirm": 9169,
      "ĠderiveRenderOpts": 9170,
      "699": 9171,
      "Ñĩ": 9172,
      "important": 9173,
      "Ġhorizontal": 9174,
      "ĠsetUser": 9175,
      "Ġunstable": 9176,
      "Endpoint": 9177,
      "toBeInThe": 9178,
      "toBeInTheDocument": 9179,
      "874": 9180,
      "ĠFeed": 9181,
      "Ġsupabase": 9182,
      "PT": 9183,
      "Ġcontract": 9184,
      "ĠsiteConfig": 9185,
      "Course": 9186,
      "Ġrespon": 9187,
      "ĠTx": 9188,
      "headerGroup": 9189,
      "Ġcompact": 9190,
      "ĠMotion": 9191,
      "Bundle": 9192,
      "Fit": 9193,
      "Si": 9194,
      "ĠtoggleSidebar": 9195,
      "Ġresolver": 9196,
      "561": 9197,
      "timeout": 9198,
      "NativeSelectOption": 9199,
      "popper": 9200,
      "Swi": 9201,
      "na": 9202,
      "ĠuseSafe": 9203,
      "401": 9204,
      "zier": 9205,
      "Reader": 9206,
      "ĠBasic": 9207,
      "Angle": 9208,
      "Ġinvite": 9209,
      "swipe": 9210,
      "Ġ**:": 9211,
      "549": 9212,
      "659": 9213,
      "909": 9214,
      "DS": 9215,
      "cw": 9216,
      "Ġry": 9217,
      "Ġ?.": 9218,
      "Inputs": 9219,
      "673": 9220,
      "ĠTableBody": 9221,
      "streaming": 9222,
      "Ġcould": 9223,
      "Ġvisual": 9224,
      "751": 9225,
      "typename": 9226,
      "ĠalignOffset": 9227,
      "Enterprise": 9228,
      "itemId": 9229,
      "parts": 9230,
      "matches": 9231,
      "531": 9232,
      "Ġcircle": 9233,
      "Ġseconds": 9234,
      "uched": 9235,
      "ĠTabsContent": 9236,
      "Orders": 9237,
      "éĻ¤": 9238,
      "809": 9239,
      "Ġlinear": 9240,
      "Ġhighlighted": 9241,
      "ĠborderBottom": 9242,
      "609": 9243,
      "net": 9244,
      "ĠtotalPages": 9245,
      "ĠCheckout": 9246,
      "ĠchartData": 9247,
      "Ġoccurred": 9248,
      "}}": 9249,
      "Ġwarning": 9250,
      "Ġhash": 9251,
      "isEmpty": 9252,
      "TAB": 9253,
      "979": 9254,
      "FT": 9255,
      "Ġintegration": 9256,
      "Ġexpected": 9257,
      "Ġ1200": 9258,
      "971": 9259,
      "972": 9260,
      "invalidate": 9261,
      "ierarch": 9262,
      "CollapsibleContent": 9263,
      "Ġ*:[": 9264,
      "Qz": 9265,
      "ĠCell": 9266,
      "quence": 9267,
      "[]>": 9268,
      "Supported": 9269,
      "ĠMDX": 9270,
      "311": 9271,
      "722": 9272,
      "Skip": 9273,
      "Ġ(\\": 9274,
      "ĠAutocomplete": 9275,
      "Ġ700": 9276,
      "Schedule": 9277,
      "674": 9278,
      "fn": 9279,
      "ç®": 9280,
      "Ġge": 9281,
      "romwell": 9282,
      "DrawerPrimitive": 9283,
      "GET": 9284,
      "AIL": 9285,
      "ĠonMouseDown": 9286,
      "ĠScrollAreaPrimitive": 9287,
      "726": 9288,
      "Ġ`}": 9289,
      "Ġoverride": 9290,
      "Ġshowing": 9291,
      "932": 9292,
      "ubic": 9293,
      "ĠSocial": 9294,
      "Ġ141": 9295,
      "Phase": 9296,
      "402": 9297,
      "SA": 9298,
      "893": 9299,
      "Mono": 9300,
      "poly": 9301,
      "Favorite": 9302,
      "ä¼": 9303,
      "ĠReset": 9304,
      "strict": 9305,
      "collections": 9306,
      "Execution": 9307,
      "?',": 9308,
      "SO": 9309,
      "sample": 9310,
      "ational": 9311,
      "Sizes": 9312,
      "={['": 9313,
      "Hour": 9314,
      "ĠisDragging": 9315,
      "961": 9316,
      "Ġfn": 9317,
      "684": 9318,
      "Retry": 9319,
      "Priority": 9320,
      "ĠtranslateY": 9321,
      "prefetch": 9322,
      "å°": 9323,
      "Ġ\"^": 9324,
      "divider": 9325,
      "Ġinfinite": 9326,
      "FieldId": 9327,
      "Ġjob": 9328,
      "Ġ131": 9329,
      "SPAC": 9330,
      "fb": 9331,
      "mutation": 9332,
      "Ġty": 9333,
      "ĠStrictProps": 9334,
      "301": 9335,
      "619": 9336,
      "ced": 9337,
      "Ġwri": 9338,
      "ĠFull": 9339,
      "UpIcon": 9340,
      "SSR": 9341,
      "ĠParameters": 9342,
      "Palette": 9343,
      "`](": 9344,
      "guide": 9345,
      "ĠDescription": 9346,
      "lish": 9347,
      "ĠBe": 9348,
      "inputValue": 9349,
      "ĠNodeComponentProps": 9350,
      "DefaultElementType": 9351,
      "Decorator": 9352,
      "(',": 9353,
      "Px": 9354,
      "ĠNative": 9355,
      "ĠsearchQuery": 9356,
      "CollapsibleTrigger": 9357,
      "Ġvec": 9358,
      "counter": 9359,
      "lare": 9360,
      "Ġmuted": 9361,
      "ĠTrack": 9362,
      "ĠisExpanded": 9363,
      "Ġtransactions": 9364,
      "LECT": 9365,
      "CheckboxPrimitive": 9366,
      "DATE": 9367,
      "_${": 9368,
      "Ġprevent": 9369,
      "ĠHex": 9370,
      "Ġanimated": 9371,
      "Ġdocumentation": 9372,
      "Camera": 9373,
      "Gallery": 9374,
      "Ġtip": 9375,
      "Artifact": 9376,
      "Requests": 9377,
      "ĠBrowser": 9378,
      "ighlights": 9379,
      "ĠPrice": 9380,
      "pu": 9381,
      "tention": 9382,
      "ripts": 9383,
      "(\",": 9384,
      "ky": 9385,
      "Ġ':": 9386,
      "tsconfig": 9387,
      "SelectProps": 9388,
      "886": 9389,
      "ĠUsers": 9390,
      "setValue": 9391,
      "mini": 9392,
      "ĠFormLabel": 9393,
      "lipse": 9394,
      "Contributors": 9395,
      "ÑĢÐµ": 9396,
      "otai": 9397,
      "885": 9398,
      "ĠCollection": 9399,
      "Ġmerged": 9400,
      "922": 9401,
      "cure": 9402,
      "hi": 9403,
      "çŃ": 9404,
      "arg": 9405,
      "ĠSend": 9406,
      "Ġaccessibility": 9407,
      "dices": 9408,
      "divid": 9409,
      "vega": 9410,
      "viewer": 9411,
      "print": 9412,
      "rup": 9413,
      "ĠsetEmail": 9414,
      "ĠST": 9415,
      "ĠAl": 9416,
      "discussion": 9417,
      "EVENTS": 9418,
      "Scalars": 9419,
      "761": 9420,
      "ĠcurrentUser": 9421,
      "Ġobj": 9422,
      "ĠstrokeDasharray": 9423,
      "439": 9424,
      "ĠStart": 9425,
      "Bounds": 9426,
      "ĠChangeEvent": 9427,
      "ĠIntl": 9428,
      "MIT": 9429,
      "Ġ198": 9430,
      "Ġhours": 9431,
      "-[>[": 9432,
[...]
